{
  "version": "1.0",
  "truncation": {
    "direction": "Right",
    "max_length": 128,
    "strategy": "LongestFirst",
    "stride": 0
  },
  "padding": null,
  "added_tokens": [
    {
      "id": 0,
      "content": "<s>",
      "single_word": false,
      "lstrip": false,
      "rstrip": false,
      "normalized": false,
      "special": true
    },
    {
      "id": 1,
      "content": "<pad>",
      "single_word": false,
      "lstrip": false,
      "rstrip": false,
      "normalized": false,
      "special": true
    },
    {
      "id": 2,
      "content": "</s>",
      "single_word": false,
      "lstrip": false,
      "rstrip": false,
      "normalized": false,
      "special": true
    },
    {
      "id": 3,
      "content": "<unk>",
      "single_word": false,
      "lstrip": false,
      "rstrip": false,
      "normalized": false,
      "special": true
    },
    {
      "id": 4,
      "content": "<mask>",
      "single_word": false,
      "lstrip": false,
      "rstrip": false,
      "normalized": false,
      "special": true
    },
    {
      "id": 50257,
      "content": "<|endoftext|>",
      "single_word": false,
      "lstrip": false,
      "rstrip": false,
      "normalized": false,
      "special": true
    }
  ],
  "normalizer": null,
  "pre_tokenizer": {
    "type": "ByteLevel",
    "add_prefix_space": false,
    "trim_offsets": true,
    "use_regex": true
  },
  "post_processor": {
    "type": "ByteLevel",
    "add_prefix_space": true,
    "trim_offsets": false,
    "use_regex": true
  },
  "decoder": {
    "type": "ByteLevel",
    "add_prefix_space": true,
    "trim_offsets": true,
    "use_regex": true
  },
  "model": {
    "type": "BPE",
    "dropout": null,
    "unk_token": null,
    "continuing_subword_prefix": "",
    "end_of_word_suffix": "",
    "fuse_unk": false,
    "byte_fallback": false,
    "ignore_merges": false,
    "vocab": {
      "<s>": 0,
      "<pad>": 1,
      "</s>": 2,
      "<unk>": 3,
      "<mask>": 4,
      "!": 5,
      "\"": 6,
      "#": 7,
      "$": 8,
      "%": 9,
      "&": 10,
      "'": 11,
      "(": 12,
      ")": 13,
      "*": 14,
      "+": 15,
      ",": 16,
      "-": 17,
      ".": 18,
      "/": 19,
      "0": 20,
      "1": 21,
      "2": 22,
      "3": 23,
      "4": 24,
      "5": 25,
      "6": 26,
      "7": 27,
      "8": 28,
      "9": 29,
      ":": 30,
      ";": 31,
      "<": 32,
      "=": 33,
      ">": 34,
      "?": 35,
      "@": 36,
      "A": 37,
      "B": 38,
      "C": 39,
      "D": 40,
      "E": 41,
      "F": 42,
      "G": 43,
      "H": 44,
      "I": 45,
      "J": 46,
      "K": 47,
      "L": 48,
      "M": 49,
      "N": 50,
      "O": 51,
      "P": 52,
      "Q": 53,
      "R": 54,
      "S": 55,
      "T": 56,
      "U": 57,
      "V": 58,
      "W": 59,
      "X": 60,
      "Y": 61,
      "Z": 62,
      "[": 63,
      "\\": 64,
      "]": 65,
      "^": 66,
      "_": 67,
      "`": 68,
      "a": 69,
      "b": 70,
      "c": 71,
      "d": 72,
      "e": 73,
      "f": 74,
      "g": 75,
      "h": 76,
      "i": 77,
      "j": 78,
      "k": 79,
      "l": 80,
      "m": 81,
      "n": 82,
      "o": 83,
      "p": 84,
      "q": 85,
      "r": 86,
      "s": 87,
      "t": 88,
      "u": 89,
      "v": 90,
      "w": 91,
      "x": 92,
      "y": 93,
      "z": 94,
      "{": 95,
      "|": 96,
      "}": 97,
      "~": 98,
      "¡": 99,
      "¢": 100,
      "£": 101,
      "¤": 102,
      "¥": 103,
      "¦": 104,
      "§": 105,
      "¨": 106,
      "©": 107,
      "ª": 108,
      "«": 109,
      "¬": 110,
      "®": 111,
      "¯": 112,
      "°": 113,
      "±": 114,
      "²": 115,
      "³": 116,
      "´": 117,
      "µ": 118,
      "¶": 119,
      "·": 120,
      "¸": 121,
      "¹": 122,
      "º": 123,
      "»": 124,
      "¼": 125,
      "½": 126,
      "¾": 127,
      "¿": 128,
      "À": 129,
      "Á": 130,
      "Â": 131,
      "Ã": 132,
      "Ä": 133,
      "Å": 134,
      "Æ": 135,
      "Ç": 136,
      "È": 137,
      "É": 138,
      "Ê": 139,
      "Ë": 140,
      "Ì": 141,
      "Í": 142,
      "Î": 143,
      "Ï": 144,
      "Ð": 145,
      "Ñ": 146,
      "Ò": 147,
      "Ó": 148,
      "Ô": 149,
      "Õ": 150,
      "Ö": 151,
      "×": 152,
      "Ø": 153,
      "Ù": 154,
      "Ú": 155,
      "Û": 156,
      "Ü": 157,
      "Ý": 158,
      "Þ": 159,
      "ß": 160,
      "à": 161,
      "á": 162,
      "â": 163,
      "ã": 164,
      "ä": 165,
      "å": 166,
      "æ": 167,
      "ç": 168,
      "è": 169,
      "é": 170,
      "ê": 171,
      "ë": 172,
      "ì": 173,
      "í": 174,
      "î": 175,
      "ï": 176,
      "ð": 177,
      "ñ": 178,
      "ò": 179,
      "ó": 180,
      "ô": 181,
      "õ": 182,
      "ö": 183,
      "÷": 184,
      "ø": 185,
      "ù": 186,
      "ú": 187,
      "û": 188,
      "ü": 189,
      "ý": 190,
      "þ": 191,
      "ÿ": 192,
      "Ā": 193,
      "ā": 194,
      "Ă": 195,
      "ă": 196,
      "Ą": 197,
      "ą": 198,
      "Ć": 199,
      "ć": 200,
      "Ĉ": 201,
      "ĉ": 202,
      "Ċ": 203,
      "ċ": 204,
      "Č": 205,
      "č": 206,
      "Ď": 207,
      "ď": 208,
      "Đ": 209,
      "đ": 210,
      "Ē": 211,
      "ē": 212,
      "Ĕ": 213,
      "ĕ": 214,
      "Ė": 215,
      "ė": 216,
      "Ę": 217,
      "ę": 218,
      "Ě": 219,
      "ě": 220,
      "Ĝ": 221,
      "ĝ": 222,
      "Ğ": 223,
      "ğ": 224,
      "Ġ": 225,
      "ġ": 226,
      "Ģ": 227,
      "ģ": 228,
      "Ĥ": 229,
      "ĥ": 230,
      "Ħ": 231,
      "ħ": 232,
      "Ĩ": 233,
      "ĩ": 234,
      "Ī": 235,
      "ī": 236,
      "Ĭ": 237,
      "ĭ": 238,
      "Į": 239,
      "į": 240,
      "İ": 241,
      "ı": 242,
      "Ĳ": 243,
      "ĳ": 244,
      "Ĵ": 245,
      "ĵ": 246,
      "Ķ": 247,
      "ķ": 248,
      "ĸ": 249,
      "Ĺ": 250,
      "ĺ": 251,
      "Ļ": 252,
      "ļ": 253,
      "Ľ": 254,
      "ľ": 255,
      "Ŀ": 256,
      "ŀ": 257,
      "Ł": 258,
      "ł": 259,
      "Ń": 260,
      "Ġl": 261,
      "Ġh": 262,
      "Ġm": 263,
      "Ġb": 264,
      "Ġk": 265,
      "ĳá": 266,
      "Äĳá": 267,
      "ĠÄĳá": 268,
      "tr": 269,
      "Ġs": 270,
      "Ġtr": 271,
      "cÃ": 272,
      "°á": 273,
      "°á»": 274,
      "Æ°á»": 275,
      "ĠcÃ": 276,
      "º¡": 277,
      "º¿": 278,
      "áº¡": 279,
      "»ĩ": 280,
      "Ãª": 281,
      "á»ĩ": 282,
      "Ġg": 283,
      "áº¿": 284,
      "Ã´": 285,
      "Ġd": 286,
      "º£": 287,
      "Ġkh": 288,
      "cá": 289,
      "Ġcá": 290,
      "an": 291,
      "»Ļ": 292,
      "ĠT": 293,
      "Ġp": 294,
      "º¥": 295,
      "áº£": 296,
      "Ġph": 297,
      "¡n": 298,
      "»ĳ": 299,
      "Ã¢": 300,
      "iá»ĩ": 301,
      "vá": 302,
      "Ġvá": 303,
      "Ãªn": 304,
      "tá": 305,
      "Ã¬": 306,
      "Ġc": 307,
      "Ġch": 308,
      "Ġtá": 309,
      "Ġmá": 310,
      "¡c": 311,
      "on": 312,
      "ĠlÃ": 313,
      "łn": 314,
      "Ġgi": 315,
      "»ģ": 316,
      "Ã´n": 317,
      "»ĥ": 318,
      "vÃ": 319,
      "ĠvÃ": 320,
      "uá": 321,
      "in": 322,
      "Ãłn": 323,
      "»§": 324,
      "ºŃ": 325,
      "Ġsá": 326,
      "âĢ": 327,
      "Ã³": 328,
      "»ĭ": 329,
      "ÃŃ": 330,
      "ĠvÃł": 331,
      "Ã´ng": 332,
      "uy": 333,
      "º§": 334,
      "ĠC": 335,
      "áº¥": 336,
      "»Ľ": 337,
      "ĠN": 338,
      "Ġq": 339,
      "Ġr": 340,
      "iáº¿": 341,
      "Ġx": 342,
      "ĠlÃł": 343,
      "Ġhá": 344,
      "Äĥ": 345,
      "á»ĥ": 346,
      "Æ°á»Ŀ": 347,
      "»±": 348,
      "Ġchá": 349,
      "Æ°á»£": 350,
      "á»ģ": 351,
      "ÄĲ": 352,
      "Ã£": 353,
      "»Ľi": 354,
      "»§a": 355,
      "»©": 356,
      "ong": 357,
      "ĠcÃ³": 358,
      "ĠH": 359,
      "Ġcá»§a": 360,
      "hi": 361,
      "Ġbá": 362,
      "á»": 363,
      "há»": 364,
      "Ãº": 365,
      "áº¡i": 366,
      "Ã¬n": 367,
      "Ã¡n": 368,
      "Æ¡n": 369,
      "Ġ1": 370,
      "ï¿": 371,
      "áº¡n": 372,
      "ï¿½": 373,
      "Ġqu": 374,
      "ĠcÃ¡c": 375,
      "Ã¬nh": 376,
      "º¯": 377,
      "Ã¢n": 378,
      "20": 379,
      "hÆ": 380,
      "Ã¡c": 381,
      "áº£n": 382,
      "Ġhá»": 383,
      "ĠB": 384,
      "Äĥn": 385,
      "Ġtá»": 386,
      "ĠV": 387,
      "hÆ°": 388,
      "ĠÄĲ": 389,
      "Æ°á»£c": 390,
      "ay": 391,
      "áº¥t": 392,
      "ĠM": 393,
      "inh": 394,
      "»Ļt": 395,
      "Æ°á»Ľ": 396,
      "ĠkhÃ´ng": 397,
      "Ġcho": 398,
      "ły": 399,
      "áºŃ": 400,
      "Ãły": 401,
      "iá»ĩn": 402,
      "ĠÃ": 403,
      "am": 404,
      "..": 405,
      "ĳÆ°á»£c": 406,
      "ÄĳÆ°á»£c": 407,
      "º§n": 408,
      "ĠÄĳÆ°á»£c": 409,
      "á»ĭ": 410,
      "á»±": 411,
      "ao": 412,
      "º·": 413,
      "ang": 414,
      "ĠS": 415,
      "anh": 416,
      "ĠL": 417,
      "00": 418,
      "un": 419,
      "¡i": 420,
      "Ġtrong": 421,
      "Æ°á»Ŀi": 422,
      "ai": 423,
      "ĠP": 424,
      "Ġmá»Ļt": 425,
      "Ġvá»Ľi": 426,
      "ĠTh": 427,
      "»ĳn": 428,
      "ĠmÃ": 429,
      "Æ°á»Ŀn": 430,
      "gÆ°á»Ŀi": 431,
      "ï¿½ï¿½": 432,
      "gh": 433,
      "á»ģu": 434,
      "iá»ĥ": 435,
      "nhá»": 436,
      "Æ¡ng": 437,
      "Ġ(": 438,
      "Ġnhá»": 439,
      "Æ°á»Ŀng": 440,
      "Ġchá»": 441,
      "Ãłnh": 442,
      "á»¥": 443,
      "¯n": 444,
      "¯ng": 445,
      "²n": 446,
      "áº£i": 447,
      "ngÆ°á»Ŀi": 448,
      "ĠngÆ°á»Ŀi": 449,
      "ĠÄĳá»": 450,
      "ung": 451,
      "©n": 452,
      "Ġ0": 453,
      "iÃªn": 454,
      "łi": 455,
      "Ãłng": 456,
      "Ġ-": 457,
      "º§u": 458,
      "nhÆ°": 459,
      "Ġ2": 460,
      "ĠK": 461,
      "Â£": 462,
      "Ãłi": 463,
      "ĠnhÆ°": 464,
      "ÃŃn": 465,
      "201": 466,
      "ĠphÃ": 467,
      "Æ°á»Ľc": 468,
      "ngh": 469,
      "ĠâĢ": 470,
      "Ġngh": 471,
      "á»Ł": 472,
      "»©c": 473,
      "en": 474,
      "ĠcÃ´": 475,
      "Ã´i": 476,
      "ĠÄĳá»Ļ": 477,
      "Ġho": 478,
      "ĵn": 479,
      "á»Ļ": 480,
      "Ġnhá»¯ng": 481,
      "ĠD": 482,
      "ĠG": 483,
      "iáº¿t": 484,
      "ti": 485,
      "nhi": 486,
      "Â¡": 487,
      "Ġnhi": 488,
      "ĠTr": 489,
      "á»ģn": 490,
      "Ã¢y": 491,
      "iáº¿n": 492,
      "er": 493,
      "ĳÃ£": 494,
      "ÄĳÃ£": 495,
      "áº§n": 496,
      "ĠÄĳÃ£": 497,
      "Äĥng": 498,
      "au": 499,
      "ĠÄĳá»ĥ": 500,
      "ÃŃnh": 501,
      "háºŃ": 502,
      "áº¿t": 503,
      "¹n": 504,
      "Ŀi": 505,
      "há»ĥ": 506,
      "Âµ": 507,
      "áº¯": 508,
      "thá»ĥ": 509,
      "Ġthá»ĥ": 510,
      "»ĳi": 511,
      "em": 512,
      "»ĳng": 513,
      "ĳi": 514,
      "Äĳi": 515,
      "ĠÄĳi": 516,
      "Ã©": 517,
      "ĠA": 518,
      "°Æ¡ng": 519,
      "Æ°Æ¡ng": 520,
      "¹ng": 521,
      "ĠcÃ´n": 522,
      "ĠcÃ´ng": 523,
      "Â»": 524,
      "iá»ĩt": 525,
      "º½": 526,
      "Ġbáº¡n": 527,
      "įc": 528,
      "º¥t": 529,
      "om": 530,
      "á»ħ": 531,
      "Æ¡": 532,
      "«n": 533,
      "nÃły": 534,
      "ĠnÃły": 535,
      "ĠCh": 536,
      "á»±c": 537,
      "to": 538,
      "Ġ3": 539,
      "ĵng": 540,
      "Äĥm": 541,
      "¡t": 542,
      "ĠÄĳáº¿": 543,
      "Ġcáº£": 544,
      "ãĢ": 545,
      "Ġmá»": 546,
      "ĀĀ": 547,
      "ĠgiÃ": 548,
      "Ġsá»": 549,
      "Ã¡ng": 550,
      "»ĳc": 551,
      "Ġvá»": 552,
      "ĠÄĳáº¿n": 553,
      "ar": 554,
      "Ġkhi": 555,
      "©ng": 556,
      "ÃĬ": 557,
      "Ã¡ch": 558,
      "ĠQ": 559,
      "Ġra": 560,
      "Ġvá»ģ": 561,
      "Å©ng": 562,
      "Â¬": 563,
      "eo": 564,
      "ÃĦ": 565,
      "ĠlÃłm": 566,
      "¡o": 567,
      "Ġá»Ł": 568,
      "ĳÃ³": 569,
      "ÃĶ": 570,
      "à²": 571,
      "ÄĳÃ³": 572,
      "táº¡i": 573,
      "iá»ĩu": 574,
      "ĠÄĳÃ³": 575,
      "Ġtáº¡i": 576,
      "á»§": 577,
      "á»ĩn": 578,
      "âĢ¦": 579,
      "háº¥t": 580,
      "hÃ¢n": 581,
      "º±": 582,
      "įn": 583,
      "Ġsáº½": 584,
      "Ãªu": 585,
      "á»¯": 586,
      "Ġdá»¥": 587,
      "Ġtá»«": 588,
      "²ng": 589,
      "ÃĲ": 590,
      "áº·": 591,
      "ĠmÃł": 592,
      "thá»": 593,
      "ĠcÅ©ng": 594,
      "Ġthá»": 595,
      "º©": 596,
      "Ãĸ": 597,
      "Ġti": 598,
      "ĠÄĳá»ĭ": 599,
      "ĠhÃłng": 600,
      "gÃły": 601,
      "ÃŃc": 602,
      "ÃĴ": 603,
      "ĠvÃło": 604,
      "ÃŃch": 605,
      "Ġláº¡i": 606,
      "Â¹": 607,
      "ĠtrÃªn": 608,
      "Ġnhiá»ģu": 609,
      "uáºŃ": 610,
      "âĢĿ": 611,
      "ta": 612,
      "º»": 613,
      "Ã²": 614,
      "ło": 615,
      "hu": 616,
      "áº¥y": 617,
      "ho": 618,
      "Ġphá": 619,
      "Ġsá»ĳ": 620,
      "Ãło": 621,
      "nÃ³": 622,
      "Ìģ": 623,
      "ĠnÃ³": 624,
      "iá»ĩc": 625,
      "Ã¢m": 626,
      "ĠÄĳáº§u": 627,
      "Â½": 628,
      "ĠNg": 629,
      "Æ¡i": 630,
      "ÃĢ": 631,
      "á»©": 632,
      "ww": 633,
      "Â±": 634,
      "Ġchá»ī": 635,
      "Â£Â¬": 636,
      "ĠgiÃ¡": 637,
      "Ãĭ": 638,
      "Â¼": 639,
      "nháº¥t": 640,
      "Ãºn": 641,
      "Ġbá»ĭ": 642,
      "Ġnháº¥t": 643,
      "ĠPh": 644,
      "nÄĥm": 645,
      "Æ°á»£n": 646,
      "Ġsá»±": 647,
      "Ãºng": 648,
      "Ãĵ": 649,
      "ķi": 650,
      "áº¡c": 651,
      "Â·": 652,
      "ÃĪ": 653,
      "hÃ´ng": 654,
      "Ġdá»¥n": 655,
      "Ġdá»¥ng": 656,
      "ĠnÄĥm": 657,
      "º¹": 658,
      "ĠÄĳá»Ļn": 659,
      "Æ°á»£ng": 660,
      "Ġhiá»ĩn": 661,
      "uá»": 662,
      "ĠÄĳá»Ļng": 663,
      "Ġto": 664,
      "ngÃły": 665,
      "hÃ¬": 666,
      "Ġbá»": 667,
      "Ãı": 668,
      "á»ĵ": 669,
      "hÃłnh": 670,
      "uá»ĳc": 671,
      "º±n": 672,
      "com": 673,
      "áº£o": 674,
      "nháºŃ": 675,
      "uyÃªn": 676,
      "ĠngÃły": 677,
      "Ã¨": 678,
      "Ġy": 679,
      "ĠnháºŃ": 680,
      "¡p": 681,
      "viá»ĩc": 682,
      "Ġviá»ĩc": 683,
      "º±ng": 684,
      "Ġpháº£i": 685,
      "es": 686,
      "thÃłnh": 687,
      "Ãĥ": 688,
      "thÃ¬": 689,
      "Ġdo": 690,
      "Ġhá»įc": 691,
      "ĠthÃ¬": 692,
      "ĠthÃłnh": 693,
      "vi": 694,
      "á»ħn": 695,
      "Ã½": 696,
      "Ġtrá»": 697,
      "ĠÄĳáº¡": 698,
      "Ġcá»": 699,
      "Ã¡nh": 700,
      "al": 701,
      "Â´": 702,
      "º·t": 703,
      "Ġlá»": 704,
      "Ãģ": 705,
      "Â³": 706,
      "Ãį": 707,
      "á»ĭc": 708,
      "á»ĭch": 709,
      "Ġlá": 710,
      "iá»ĥm": 711,
      "im": 712,
      "Ġ4": 713,
      "Ãİ": 714,
      "Ã¹": 715,
      "Âº": 716,
      "Ġquy": 717,
      "ĠâĢľ": 718,
      "¡y": 719,
      "nÆ°á»Ľc": 720,
      "Ġlo": 721,
      "heo": 722,
      "ĠnÆ°á»Ľc": 723,
      "Ãī": 724,
      "or": 725,
      "á»Ļi": 726,
      "£p": 727,
      "et": 728,
      "Â²": 729,
      "tÃ´i": 730,
      "Ãĩ": 731,
      "háº¿": 732,
      "ĠtÃ´i": 733,
      "º©m": 734,
      "Ġsáº£n": 735,
      "Ġ5": 736,
      "Â¿": 737,
      "Â¶": 738,
      "ÌĢ": 739,
      "Â°": 740,
      "Ġ201": 741,
      "º«n": 742,
      "ĠchÃŃnh": 743,
      "Ã¡i": 744,
      "Ġhá»£p": 745,
      "Â¾": 746,
      "ÃĤ": 747,
      "at": 748,
      "nhÃ¢n": 749,
      "Ì£": 750,
      "Ġgia": 751,
      "ĠnhÃ¢n": 752,
      "ĠNam": 753,
      "Ãķ": 754,
      "Ã¢u": 755,
      "ÃĨ": 756,
      "ĠváºŃ": 757,
      "Ġquan": 758,
      "Ä©": 759,
      "Â¸": 760,
      "Ġhá»Ļ": 761,
      "ĠhÆ¡n": 762,
      "ĠÄĳá»ĭn": 763,
      "ĠÄĳá»ĭnh": 764,
      "ĠGi": 765,
      "ua": 766,
      "Ãªm": 767,
      "ĠÄĳá»ģ": 768,
      "tin": 769,
      "Ġsinh": 770,
      "ĠmÃ¬nh": 771,
      "Ġnghiá»ĩ": 772,
      "Ġcao": 773,
      "Ġkho": 774,
      "»ĳt": 775,
      "º¯t": 776,
      "Ã¹ng": 777,
      "Ġcon": 778,
      "°a": 779,
      "Æ°a": 780,
      "ĠX": 781,
      "ĠViá»ĩt": 782,
      "uá»Ļ": 783,
      "ĠÄĳá»ĵng": 784,
      "áº£ng": 785,
      "Ġcáº¥": 786,
      "tháº¿": 787,
      "nÃªn": 788,
      "áº»": 789,
      "theo": 790,
      "ĠnÃªn": 791,
      "Ġtháº¿": 792,
      "Ã³n": 793,
      "ÃĹ": 794,
      "ĠcÃ²n": 795,
      "Ġmá»Ľi": 796,
      "á»Ľi": 797,
      "Æ°á»Ł": 798,
      "Ġtheo": 799,
      "ĠcÃ¡ch": 800,
      "á»©c": 801,
      "ĠR": 802,
      "Ġsá»Ń": 803,
      "iá»ĥn": 804,
      "há»±c": 805,
      "uáº¥t": 806,
      "áº¯n": 807,
      "...": 808,
      "Ġdá»±": 809,
      "áº¡nh": 810,
      "Æ°á»Łn": 811,
      "Æ°á»Łng": 812,
      "ĠcÆ¡": 813,
      "áº¿u": 814,
      "á»Ń": 815,
      "ĠtrÆ°á»Ŀng": 816,
      "thu": 817,
      "Ġthá»Ŀi": 818,
      "Ġráº¥t": 819,
      "Ġsau": 820,
      "Ã¡o": 821,
      "Ã¡t": 822,
      "ĠhÃ¬nh": 823,
      "áº¡t": 824,
      "ac": 825,
      "Ġchi": 826,
      "thá»±c": 827,
      "hÆ°Æ¡ng": 828,
      "ĀĀĀĀ": 829,
      "Ġthá»±c": 830,
      "thÃ´ng": 831,
      "iá»ĥu": 832,
      "ĠthÃ´ng": 833,
      "ĠâĢĵ": 834,
      "Ġta": 835,
      "el": 836,
      "ĠÄĳiá»ģu": 837,
      "á»ĳng": 838,
      "á»ķ": 839,
      "Ġ|": 840,
      "Ġthu": 841,
      "go": 842,
      "uyá»ĩn": 843,
      "Ġtin": 844,
      "12": 845,
      "áº¡o": 846,
      "ï¿½ï¿½ï¿½ï¿½": 847,
      "uá»Ļc": 848,
      "ÃĮ": 849,
      "áº¡ng": 850,
      "tÆ": 851,
      "tÆ°": 852,
      "Ã¥": 853,
      "000": 854,
      "ĠtÆ°": 855,
      "viÃªn": 856,
      "ĠviÃªn": 857,
      "ĠkhÃ¡ch": 858,
      "it": 859,
      "ĠcÃ¹ng": 860,
      "ĠlÃ½": 861,
      "thi": 862,
      "Ġcáº¥p": 863,
      "ĠphÃŃ": 864,
      "Ãºc": 865,
      "«ng": 866,
      "Ġqua": 867,
      "Ġ6": 868,
      "Ġpháº©m": 869,
      "Ġvá»¥": 870,
      "ĳang": 871,
      "Äĳang": 872,
      "ĠnhÆ°n": 873,
      "ĠnhÆ°ng": 874,
      "ĠnÃ³i": 875,
      "ĠÄĳang": 876,
      "įng": 877,
      "ĠlÃªn": 878,
      "ĠtrÃ¬nh": 879,
      "Ġvi": 880,
      "¥c": 881,
      "10": 882,
      "uáºŃn": 883,
      "Ġbiáº¿t": 884,
      "as": 885,
      "ºŃp": 886,
      "ĠhÃłnh": 887,
      "ĠkhÃ¡c": 888,
      "hanh": 889,
      "ĠchÃºng": 890,
      "iáº¿p": 891,
      "há»ĭ": 892,
      "iá»ħn": 893,
      "Ġxe": 894,
      "áº·c": 895,
      "ĠphÃ¡t": 896,
      "ĠlÆ°á»£ng": 897,
      "á»ĩnh": 898,
      "nÃło": 899,
      "ĠnÃło": 900,
      "ĠmÃ¡y": 901,
      "nÄĥng": 902,
      "Ãļ": 903,
      "ĠnÄĥng": 904,
      "ÂµÃĦ": 905,
      "âĢ¦âĢ¦": 906,
      "le": 907,
      "ic": 908,
      "ĳÃ": 909,
      "Ġlá»Ľ": 910,
      "Ã³a": 911,
      "Ġcáº§n": 912,
      "ĳÃ¢y": 913,
      "ÄĳÃ¢y": 914,
      "ĠI": 915,
      "ĠÄĳÃ¢y": 916,
      "Â¢": 917,
      "ĠnháºŃn": 918,
      "º¯c": 919,
      "ĠtrÆ°á»Ľc": 920,
      "ãĢĲ": 921,
      "ãĢĳ": 922,
      "Ġthi": 923,
      "Ġ09": 924,
      "Ġ,": 925,
      "Ġbá»Ļ": 926,
      "Ġanh": 927,
      "....": 928,
      "Ġhay": 929,
      "ĠAn": 930,
      "Ã³ng": 931,
      "ãĢĳãĢĲ": 932,
      "Ġ20": 933,
      "Â¨": 934,
      "Ġcháº¥t": 935,
      "Ġká»": 936,
      "Ġmáº·t": 937,
      "Tr": 938,
      "Ãµ": 939,
      "Âª": 940,
      "ĠF": 941,
      "Ġnghiá»ĩp": 942,
      "Ġem": 943,
      "ĠdÃ¢n": 944,
      "Ãºt": 945,
      "á»ĵi": 946,
      "Ã§": 947,
      "Ġ\"": 948,
      "Ġtá»±": 949,
      "Ãħ": 950,
      "Ġxuáº¥t": 951,
      "Æ°á»Ľn": 952,
      "hiáº¿t": 953,
      "Æ°á»Ľng": 954,
      "tiáº¿n": 955,
      "vÃ¬": 956,
      "áº¡ch": 957,
      "Ġtiáº¿n": 958,
      "įi": 959,
      "ĠcÃ¢": 960,
      "uáºŃt": 961,
      "www": 962,
      "º¥n": 963,
      "ĠvÃ¬": 964,
      "11": 965,
      "háºŃt": 966,
      "Ã®": 967,
      "Ġgian": 968,
      "Ġ7": 969,
      "º¹p": 970,
      "áº¿n": 971,
      "ĳiá»ĥm": 972,
      "Äĳiá»ĥm": 973,
      "Ġkinh": 974,
      "Ġkáº¿t": 975,
      "háº¥y": 976,
      "ĠÄĳiá»ĥm": 977,
      "ná»¯": 978,
      "Ġná»¯": 979,
      "ad": 980,
      "Å©": 981,
      "tÃ¢m": 982,
      "tháº¥y": 983,
      "ÄĳÃ": 984,
      "Ġtháº¥y": 985,
      "ngo": 986,
      "ĠtÃ¢m": 987,
      "Ãºp": 988,
      "Ġbáº±ng": 989,
      "Ġchá»§": 990,
      "ĠphÃ²ng": 991,
      "Ġ8": 992,
      "Ġphá»¥": 993,
      "Ã¦": 994,
      "Ġbáº£o": 995,
      "ĠtoÃłn": 996,
      "Ġan": 997,
      "hÃ¡ng": 998,
      "Ġtá»ĳt": 999,
      "Â«": 1000,
      "ĠÄĳÃ": 1001,
      "tiáº¿p": 1002,
      "thá»ĭ": 1003,
      "táº¿": 1004,
      "áº£nh": 1005,
      "Ġtáº¿": 1006,
      "thiáº¿t": 1007,
      "Ġdá": 1008,
      "Ġtiáº¿p": 1009,
      "Ãĺ": 1010,
      "Ġtiá»ģn": 1011,
      "ty": 1012,
      "ĠÄĳá»ĳi": 1013,
      "Ġthá»ĭ": 1014,
      "ĳÆ°á»Ŀng": 1015,
      "ÄĳÆ°á»Ŀng": 1016,
      "Ġhá»Ļi": 1017,
      "ĠgÃ¬": 1018,
      "Ġthiáº¿t": 1019,
      "á»ĥn": 1020,
      "Ġngo": 1021,
      "Ġhiá»ĩu": 1022,
      "Ġ10": 1023,
      "Ġtá»ķ": 1024,
      "ĠÄĳÆ°á»Ŀng": 1025,
      "ed": 1026,
      "NG": 1027,
      "ĠHo": 1028,
      "tÃ¬nh": 1029,
      "tÃ¡c": 1030,
      "»±c": 1031,
      "ĠtÃ¡c": 1032,
      "Ġcáº§u": 1033,
      "ĠtÃ¬nh": 1034,
      "Ġvá»ĭ": 1035,
      "táº¡o": 1036,
      "Ġtáº¡o": 1037,
      "Ġloáº¡i": 1038,
      "á»Ŀ": 1039,
      "áº¯ng": 1040,
      "ĳo": 1041,
      "ĠE": 1042,
      "is": 1043,
      "ĠÃ½": 1044,
      "Äĳo": 1045,
      "tÃŃnh": 1046,
      "ĠbÃ¡n": 1047,
      "ĠU": 1048,
      "uá»ĳn": 1049,
      "«a": 1050,
      "ĠÄĳo": 1051,
      "ĠtÃŃnh": 1052,
      "nay": 1053,
      "Ìī": 1054,
      "¡m": 1055,
      "uyá»ĥn": 1056,
      "Ġhá»į": 1057,
      "há»§": 1058,
      "Ġquáº£": 1059,
      "ĠquÃ": 1060,
      "Ĺi": 1061,
      "Ġnay": 1062,
      "Ġf": 1063,
      "ro": 1064,
      "Ġbáº£n": 1065,
      "ĠÃ´ng": 1066,
      "Ġgiáº£": 1067,
      "³n": 1068,
      "ia": 1069,
      "Ġhá»ĩ": 1070,
      "Ã¬m": 1071,
      "ĠNh": 1072,
      "£i": 1073,
      "99": 1074,
      "88": 1075,
      "Â¡Â£": 1076,
      "thÃ¡ng": 1077,
      "°u": 1078,
      "Æ°u": 1079,
      "ıi": 1080,
      "ĠgiÃºp": 1081,
      "ĠQu": 1082,
      "»©n": 1083,
      "»©ng": 1084,
      "áºŃp": 1085,
      "áº¥p": 1086,
      "ĠÄĥn": 1087,
      "hÆ°á»Ŀng": 1088,
      "tho": 1089,
      "ÆĴ": 1090,
      "ĠÄĳáº¹p": 1091,
      "ĳiá»ĩn": 1092,
      "Äĳiá»ĩn": 1093,
      "Ġpháº§n": 1094,
      "ĠÄĳiá»ĩn": 1095,
      "ap": 1096,
      "uá»ķi": 1097,
      "áº¯c": 1098,
      "Ġdá»ĭch": 1099,
      "Ġchá»©c": 1100,
      "há»©c": 1101,
      "Ġtá»Ľi": 1102,
      "Ġwww": 1103,
      "thÆ°á»Ŀng": 1104,
      "ĠthÃ¡ng": 1105,
      "Ġgá»": 1106,
      "ĠthÆ°á»Ŀng": 1107,
      "Ġgiá»Ľi": 1108,
      "Ġtho": 1109,
      "Ãĳ": 1110,
      "Ġgiáº£i": 1111,
      "ing": 1112,
      "lo": 1113,
      "ĠnhiÃªn": 1114,
      "ur": 1115,
      "º©n": 1116,
      "us": 1117,
      "Ã¸": 1118,
      "ĠÄĳáº¡i": 1119,
      "Ġhoáº·c": 1120,
      "ĠphÃ¡p": 1121,
      "Ġkáº¿": 1122,
      "ĠdÃ¹ng": 1123,
      "ĠÞ": 1124,
      "Ġbá»ĩnh": 1125,
      "Ġlá»Ľn": 1126,
      "Ġtrá»ĭ": 1127,
      ").": 1128,
      "ĠQuá»ĳc": 1129,
      "Ġhai": 1130,
      "Ġtrang": 1131,
      "áº±ng": 1132,
      "thá»©c": 1133,
      "º§m": 1134,
      "tay": 1135,
      "Ġthá»©c": 1136,
      "ĠW": 1137,
      "Ġw": 1138,
      "ĠcÃ¡i": 1139,
      "º³n": 1140,
      "Ġcáº£m": 1141,
      "Ġ9": 1142,
      "Ã·": 1143,
      "Ġchá»įn": 1144,
      "á»©n": 1145,
      "á»©ng": 1146,
      "Þ¦": 1147,
      "à³": 1148,
      "Ġdoanh": 1149,
      "ĠquÃ¡": 1150,
      "ĠtáºŃp": 1151,
      "Ġmua": 1152,
      "īn": 1153,
      "//": 1154,
      "ĠyÃªu": 1155,
      "Ġtay": 1156,
      "iá»ĩm": 1157,
      "Ġáº£nh": 1158,
      "īnh": 1159,
      "Ã±": 1160,
      "Ġcá»©": 1161,
      "Ġxem": 1162,
      "id": 1163,
      "łng": 1164,
      "ĠHÃ": 1165,
      "uÃ´n": 1166,
      "50": 1167,
      "Ġváº«n": 1168,
      "Ã¤": 1169,
      "Ġ:": 1170,
      "Ã³c": 1171,
      "ol": 1172,
      "tÄĥng": 1173,
      "thá»§": 1174,
      "ĠÃ¡n": 1175,
      "ĠMá»": 1176,
      "uyá»ģn": 1177,
      "ĠváºŃy": 1178,
      "há»©": 1179,
      "Ġthá»§": 1180,
      "ĠtÄĥng": 1181,
      "á»ĳi": 1182,
      "ĠHÃł": 1183,
      "Ġsá»ĳng": 1184,
      "º·c": 1185,
      "Ġsao": 1186,
      "tÃłi": 1187,
      "Ġmuá»ĳn": 1188,
      "ham": 1189,
      "Ã»": 1190,
      "Ġda": 1191,
      "Ġty": 1192,
      "ĠtÃłi": 1193,
      "ĠliÃªn": 1194,
      "Ġ.": 1195,
      "Ġgiá»¯": 1196,
      "ag": 1197,
      "19": 1198,
      "º¯n": 1199,
      "Ġtriá»ĥn": 1200,
      "Â¯": 1201,
      "tÃ¬m": 1202,
      "ĠTrung": 1203,
      "ĠbÃłi": 1204,
      "Ã¶": 1205,
      "ĠtÃ¬m": 1206,
      "ná»": 1207,
      "ghi": 1208,
      "Ã«": 1209,
      "Ã°": 1210,
      "Ġná»": 1211,
      "há»ĳng": 1212,
      "áº¡m": 1213,
      "thÆ°Æ¡ng": 1214,
      "Ã£ÆĴ": 1215,
      "ĠCÃ´ng": 1216,
      "ĠthÆ°Æ¡ng": 1217,
      "Ġtrá»įng": 1218,
      "º³ng": 1219,
      "16": 1220,
      "ĠY": 1221,
      "tt": 1222,
      "Ġláº§n": 1223,
      "hÃªm": 1224,
      "hau": 1225,
      "ĠlÃº": 1226,
      "tuy": 1227,
      "thá»ĳng": 1228,
      "Ġbao": 1229,
      "ĠO": 1230,
      "Ġthá»ĳng": 1231,
      "nghi": 1232,
      "ĠhÃ³a": 1233,
      "Ġmang": 1234,
      "iáº¿u": 1235,
      "Ġrá»ĵi": 1236,
      "iá»ģn": 1237,
      "ĠnghÄ©": 1238,
      "ĀĀĀĀĀĀĀĀ": 1239,
      "09": 1240,
      "Ġbiá»ĩt": 1241,
      "tÃŃch": 1242,
      "thÃªm": 1243,
      "Ġso": 1244,
      "ĠÄĳáº¥t": 1245,
      "Æ°á»Ľi": 1246,
      "ĠtÃŃch": 1247,
      "ĠthÃªm": 1248,
      "Ġtuy": 1249,
      "Ġgiao": 1250,
      "ĠtiÃªu": 1251,
      "ĠbÃ¡o": 1252,
      "Ġlá»±c": 1253,
      "uá»ĳng": 1254,
      "nhau": 1255,
      "Ġnghi": 1256,
      "Ã²ng": 1257,
      "Ġnhau": 1258,
      "á»Ļn": 1259,
      "ĳÆ¡n": 1260,
      "ÄĳÆ¡n": 1261,
      "º§y": 1262,
      "Ġchá»ĭ": 1263,
      "vÄĥn": 1264,
      "º«": 1265,
      "ĠÄĳÆ¡n": 1266,
      "Ã¡m": 1267,
      "Ġhoáº¡t": 1268,
      "ĠvÄĥn": 1269,
      "Ġtrá»Ł": 1270,
      "áº¥u": 1271,
      "Ġhá»ĵ": 1272,
      "Ã£n": 1273,
      "ĠHá»": 1274,
      "Ġtrung": 1275,
      "ĠÄĳáº£": 1276,
      "ĠtrÃŃ": 1277,
      "ĠKh": 1278,
      "Ġtiáº¿ng": 1279,
      "Â®": 1280,
      "Ġgiá»Ŀ": 1281,
      "Ã¯": 1282,
      "Ġváº¥n": 1283,
      "Þ°": 1284,
      "Ġcuá»Ļc": 1285,
      "eb": 1286,
      "áº¥n": 1287,
      "22": 1288,
      "ĠÄĳá»ģu": 1289,
      "Â¤": 1290,
      "ĠbÃªn": 1291,
      "Ġquá»ĳc": 1292,
      "ä¸": 1293,
      "Ġdáº«n": 1294,
      "ĠphÆ°Æ¡ng": 1295,
      "Ġá": 1296,
      "tham": 1297,
      "he": 1298,
      "ĠlÃºc": 1299,
      "Ġin": 1300,
      "Ġkhu": 1301,
      "33": 1302,
      "ĠÄĳá»ĭa": 1303,
      "ent": 1304,
      "Ġliá»ĩu": 1305,
      "Ġbáº¥t": 1306,
      "ÃĻ": 1307,
      "ĠchÆ°a": 1308,
      "re": 1309,
      "Ġtham": 1310,
      "nam": 1311,
      "ĠÄĳá»ķi": 1312,
      "Ġ12": 1313,
      "áºŃn": 1314,
      "ĠhoÃłn": 1315,
      "Ġo": 1316,
      "--": 1317,
      "ĠsÃ¡ng": 1318,
      "uyá»ħn": 1319,
      "Ġdu": 1320,
      "Ġtráº»": 1321,
      "ĠNá»Ļi": 1322,
      "thÃ¢n": 1323,
      "Ã²a": 1324,
      "Ã©t": 1325,
      "Ġráº±ng": 1326,
      "30": 1327,
      "ĠÄĲá»": 1328,
      "ĠthÃ¢n": 1329,
      "Ġsá»Ł": 1330,
      "Â©": 1331,
      "hÃŃch": 1332,
      "Â§": 1333,
      "thá»©": 1334,
      "Ġmáº¯t": 1335,
      "ï¼": 1336,
      "gay": 1337,
      "ĠngoÃłi": 1338,
      "Ġá»©ng": 1339,
      "Ńa": 1340,
      "Ġthá»©": 1341,
      "ÂŃ": 1342,
      "Ãľ": 1343,
      "15": 1344,
      "ĠchuyÃªn": 1345,
      "ĠcÃ¡": 1346,
      "ĳÃ¡nh": 1347,
      "ÄĳÃ¡nh": 1348,
      "ui": 1349,
      "ĠJ": 1350,
      "Ġcháº¿": 1351,
      "náº¿u": 1352,
      "18": 1353,
      "Ġchuyá»ĥn": 1354,
      "thÃŃch": 1355,
      "ĠxÃ£": 1356,
      "07": 1357,
      "ĠÄĳÃ¡nh": 1358,
      "ÃŁ": 1359,
      "ĠthÃŃch": 1360,
      "á»Ļt": 1361,
      "á»ĩt": 1362,
      "ec": 1363,
      "08": 1364,
      "ĠchÆ¡i": 1365,
      "oo": 1366,
      "Ġvá»«a": 1367,
      "âĢļ": 1368,
      "uáº§n": 1369,
      "á»±a": 1370,
      "ter": 1371,
      "Ġquyáº¿t": 1372,
      "tion": 1373,
      "Ã´m": 1374,
      "ná»Ļi": 1375,
      "hay": 1376,
      "ĠAnh": 1377,
      "14": 1378,
      "17": 1379,
      "ine": 1380,
      "oi": 1381,
      "Ġná»Ļi": 1382,
      "ngay": 1383,
      "Ġgiáº£m": 1384,
      "Ġcung": 1385,
      "Ġlá»ĭch": 1386,
      "á»ķn": 1387,
      "Łi": 1388,
      "Ġtá»īnh": 1389,
      "Ġkhá»": 1390,
      "tuá»ķi": 1391,
      "Æ°á»£t": 1392,
      "Ġnáº¿u": 1393,
      "Ġtuá»ķi": 1394,
      "Ġmiá»ħn": 1395,
      "º±m": 1396,
      "hÃ¬n": 1397,
      "Ġdá»±n": 1398,
      "Ġdá»±ng": 1399,
      "º«u": 1400,
      "ha": 1401,
      "ĠÄĳáº·t": 1402,
      "tiáº¿t": 1403,
      "ĠkhÃ³": 1404,
      "Ã£y": 1405,
      "ttp": 1406,
      "ĠmÃłu": 1407,
      "Ġngay": 1408,
      "),": 1409,
      "Ġkhá": 1410,
      "Ġsá»©c": 1411,
      "ex": 1412,
      "Ġtiáº¿t": 1413,
      "66": 1414,
      "ĠhÆ°á»Ľng": 1415,
      "thanh": 1416,
      "ĠMá»¹": 1417,
      "os": 1418,
      "ĠluÃ´n": 1419,
      "il": 1420,
      "nhanh": 1421,
      "iáº¿m": 1422,
      "¯a": 1423,
      "Ġmá»įi": 1424,
      "Ġ19": 1425,
      "Ch": 1426,
      "tháºŃt": 1427,
      "Ġnghá»ĩ": 1428,
      "ºŃu": 1429,
      "uáº©n": 1430,
      "iáº¿c": 1431,
      "á»Ļng": 1432,
      "ĠbÃ¬nh": 1433,
      "ĠÄĳáº·c": 1434,
      "uá»ĳi": 1435,
      "Ġtá»Ń": 1436,
      "ĠtháºŃt": 1437,
      "Ġnhanh": 1438,
      "uá»ĵn": 1439,
      "://": 1440,
      "Ġca": 1441,
      "ĠváºŃt": 1442,
      "Ġphá»ĳ": 1443,
      "Ġbáº¯t": 1444,
      "ĠÄĳáº¡o": 1445,
      "huáºŃt": 1446,
      "Ġmáº¡nh": 1447,
      "ĠNguyá»ħn": 1448,
      "ĠxÃ¢y": 1449,
      "Ġlá»Ŀi": 1450,
      "Ġnhá»ı": 1451,
      "thuáºŃt": 1452,
      "°n": 1453,
      "ĠthuáºŃt": 1454,
      "nhÃ¬n": 1455,
      "nÆ¡i": 1456,
      "Æ°n": 1457,
      "Æ°ng": 1458,
      "ĠnhÃ¬n": 1459,
      "05": 1460,
      "áº¡y": 1461,
      "ĠnÆ¡i": 1462,
      "iá»ģu": 1463,
      "Þ¬": 1464,
      "tu": 1465,
      "Ġká»³": 1466,
      "âĢľ": 1467,
      "ĠbÃ³ng": 1468,
      "13": 1469,
      "Ġcáº£n": 1470,
      "Ġbiáº¿n": 1471,
      "04": 1472,
      "áº±m": 1473,
      "ĠphÃ¢n": 1474,
      "06": 1475,
      "Ġtá»¥c": 1476,
      "Ã¼": 1477,
      "NH": 1478,
      "Ġi": 1479,
      "Þª": 1480,
      "guyÃªn": 1481,
      "24": 1482,
      "ĠÄĳáº¥": 1483,
      "ew": 1484,
      "thay": 1485,
      "03": 1486,
      "Ġthanh": 1487,
      "Ġbá»Łi": 1488,
      "âĤ": 1489,
      "Ġgáº§n": 1490,
      "Ã¡y": 1491,
      "Ġtrá»£": 1492,
      "ĳÃ¬nh": 1493,
      "ÄĳÃ¬nh": 1494,
      "Ġquyá»ģn": 1495,
      "Ġphá»¥c": 1496,
      "Ġháº¿t": 1497,
      "ĠÄĳÃ¬nh": 1498,
      "ĠÄĳÃ¡": 1499,
      "Ġthay": 1500,
      "vÃ´": 1501,
      "Ġa": 1502,
      "77": 1503,
      "ame": 1504,
      "Ġtá»·": 1505,
      "um": 1506,
      "ĠTH": 1507,
      "Ġmáº¹": 1508,
      "ĠbÃłn": 1509,
      "ĠÄĳá»ĵ": 1510,
      "Ġtriá»ĩu": 1511,
      "tinh": 1512,
      "Ġdá»ħ": 1513,
      "ĠvÃ´": 1514,
      "Ġ15": 1515,
      "ĠsÃ¡ch": 1516,
      "ĠláºŃp": 1517,
      "Ġná»¯a": 1518,
      "ĠnháºŃp": 1519,
      "Ġcá»ķ": 1520,
      "Ä©n": 1521,
      "Ä©nh": 1522,
      "Ġdiá»ĩn": 1523,
      "áº£y": 1524,
      "one": 1525,
      "Ġchiáº¿n": 1526,
      "Ġvá»±c": 1527,
      "Ã£i": 1528,
      "Ġchá»©ng": 1529,
      "25": 1530,
      "viáº¿t": 1531,
      "ĠbÃ": 1532,
      "ĳÆ°a": 1533,
      "ÄĳÆ°a": 1534,
      "ĠgÃ¢y": 1535,
      "Ġba": 1536,
      "ĠsÄ©": 1537,
      "ĠÄĳÆ°a": 1538,
      "nguyÃªn": 1539,
      "tiÃªn": 1540,
      "ul": 1541,
      "Ġviáº¿t": 1542,
      "ĠBÃ¬nh": 1543,
      "¡ng": 1544,
      "há»¯ng": 1545,
      "Ġkiáº¿n": 1546,
      "ĠtiÃªn": 1547,
      "Ġtra": 1548,
      "Ġtinh": 1549,
      "ĠnguyÃªn": 1550,
      "ĠgiÃ¡o": 1551,
      "âĢĵ": 1552,
      "hÃ©": 1553,
      "Ġchung": 1554,
      "tÆ°á»£ng": 1555,
      "Ġlá»£i": 1556,
      "Ġnghiá»ĩm": 1557,
      "02": 1558,
      "2019": 1559,
      "ĠtÆ°á»£ng": 1560,
      "iÃªu": 1561,
      "ĠlÃ²ng": 1562,
      "Gi": 1563,
      "ĠMinh": 1564,
      "ĳa": 1565,
      "Ġkhiáº¿n": 1566,
      "Ġkiá»ĩn": 1567,
      "ĠÄĳá»§": 1568,
      ");": 1569,
      "Äĳa": 1570,
      "¡u": 1571,
      "ĠBá»Ļ": 1572,
      "Ġà²": 1573,
      "Ġban": 1574,
      "........": 1575,
      "ĠVÄĥn": 1576,
      "tÃªn": 1577,
      "vá»ĩ": 1578,
      "áº§u": 1579,
      "Ġhoa": 1580,
      "Ġvá»ĩ": 1581,
      "Ġtá»«ng": 1582,
      "á»Ľ": 1583,
      "há»ī": 1584,
      "Ġbá»ı": 1585,
      "Ġdiá»ħn": 1586,
      "ĠÄĳa": 1587,
      "vn": 1588,
      "ĠbÃ©": 1589,
      "thÆ°": 1590,
      "ĠtÃªn": 1591,
      "Æ°á»¡ng": 1592,
      "Ġtruyá»ģn": 1593,
      "Þ¨": 1594,
      "oc": 1595,
      "ĠthÆ°": 1596,
      "áº·p": 1597,
      "Ġcá»Ńa": 1598,
      "ĠcÄĥn": 1599,
      "Â¦": 1600,
      "ĠTá»": 1601,
      "ĠkÃ½": 1602,
      "Ã¿": 1603,
      "Ã¾": 1604,
      "ĠVi": 1605,
      "Ph": 1606,
      "Ġ/": 1607,
      "Ġmá»Ĺi": 1608,
      "Ġphim": 1609,
      "Ġchuyá»ĩn": 1610,
      "Ġdi": 1611,
      "Ġhiá»ĥu": 1612,
      "ĳÄĥng": 1613,
      "ÄĳÄĥng": 1614,
      "ĠdÃłi": 1615,
      "uyáº¿t": 1616,
      "łu": 1617,
      "55": 1618,
      "34": 1619,
      "Ġai": 1620,
      "uc": 1621,
      "ÃŃt": 1622,
      "ĠÄĳÄĥng": 1623,
      "Ġtrá»±c": 1624,
      "Ġcá»©u": 1625,
      "áº¿p": 1626,
      "Ìĥ": 1627,
      "ÃĿ": 1628,
      "¯u": 1629,
      "Ġcáº£nh": 1630,
      "huá»Ļc": 1631,
      "Ġquáº£n": 1632,
      "áº¥m": 1633,
      "ºŃt": 1634,
      "Ġphong": 1635,
      "Ġhá»ıi": 1636,
      "Ġmá»¥c": 1637,
      "Ġ11": 1638,
      "ĠÄĳá»Ļi": 1639,
      "thuá»Ļc": 1640,
      "gá»": 1641,
      "łm": 1642,
      "Ġmá»©c": 1643,
      "ĠchÃ¢n": 1644,
      "Ġdung": 1645,
      "Ġnam": 1646,
      "36": 1647,
      "Ġthuá»Ļc": 1648,
      "ĠsÃ¡t": 1649,
      "Â¥": 1650,
      "ĠlÃ£": 1651,
      "Ġkhai": 1652,
      "áº¹": 1653,
      "gi": 1654,
      "Ã¡p": 1655,
      "ï¼Į": 1656,
      "Ġgiá»¯a": 1657,
      "ÞĤ": 1658,
      "ÃĽ": 1659,
      "ĠchÃŃ": 1660,
      "áº¯m": 1661,
      "Ġtá»ķn": 1662,
      "01": 1663,
      "Ġchuáº©n": 1664,
      "ĠÃģ": 1665,
      "Ġchiáº¿c": 1666,
      "ĠÄĳá»Ŀi": 1667,
      "Ġsáº¯c": 1668,
      "ot": 1669,
      "ĠkhÃŃ": 1670,
      "Ġkhoáº£ng": 1671,
      "Ġ=": 1672,
      "áº·t": 1673,
      "hiá»ĩm": 1674,
      "Ġtáº¥t": 1675,
      "á»ĳ": 1676,
      "ĠTP": 1677,
      "2018": 1678,
      "á»ķng": 1679,
      "Ġná»ķi": 1680,
      "up": 1681,
      "nhiá»ĩm": 1682,
      "ÃĶÃļ": 1683,
      "ngá»": 1684,
      "ĠdÆ°á»Ľi": 1685,
      "huá»ĳc": 1686,
      "Ġnhiá»ĩm": 1687,
      "86": 1688,
      "ĠxÃ¡c": 1689,
      "Ġgá»įi": 1690,
      "Ġchá»ĳng": 1691,
      "Ġmáº¡ng": 1692,
      "Ġngá»": 1693,
      "ve": 1694,
      "á»¥c": 1695,
      "à½": 1696,
      "ĠcÃ¢u": 1697,
      "li": 1698,
      "and": 1699,
      "á»Ńa": 1700,
      "Ġáº¥y": 1701,
      "26": 1702,
      "ĠÄĳÃ³n": 1703,
      "Ġ14": 1704,
      "Â¡Â¢": 1705,
      "Ġminh": 1706,
      "ºŃn": 1707,
      "tÃŃn": 1708,
      "Ġ16": 1709,
      "Ġkiá»ĥm": 1710,
      "ĠmÃ¹": 1711,
      "ph": 1712,
      "ĳÃºng": 1713,
      "ÄĳÃºng": 1714,
      "ĠcÃ¡o": 1715,
      "ÃĪÃĭ": 1716,
      "Ġhá»¯u": 1717,
      "ĠtÃŃn": 1718,
      "º¢": 1719,
      "iÃªng": 1720,
      "89": 1721,
      "Ġgáº·p": 1722,
      "ĠkÃ©": 1723,
      "ĠThanh": 1724,
      "ĠcÆ": 1725,
      "ĠcÃ¢y": 1726,
      "ĠÄĳÃºng": 1727,
      "ĠcÆ°": 1728,
      "á»Ńi": 1729,
      "Ġháº¡n": 1730,
      "º·n": 1731,
      "ï¿½ï¿½ï¿½": 1732,
      "23": 1733,
      "thuá»ĳc": 1734,
      "ĠCÃ¡c": 1735,
      "line": 1736,
      "ĠgÃ³": 1737,
      "ĠÃ¡p": 1738,
      "Ġmáº¥t": 1739,
      "ĠbÃł": 1740,
      "uyáº¿n": 1741,
      "Ġcá»±c": 1742,
      "Ġsang": 1743,
      "Ã²n": 1744,
      "Ġthuá»ĳc": 1745,
      "âĢ¦âĢ¦âĢ¦âĢ¦": 1746,
      "ND": 1747,
      "the": 1748,
      "Ġmá»Ł": 1749,
      "Þĩ": 1750,
      "ĠÄĲáº¡i": 1751,
      "27": 1752,
      "Ġhá»Ĺ": 1753,
      "guá»ĵn": 1754,
      "ĠÄĳáº§y": 1755,
      "ĠTrong": 1756,
      "Ã¢ng": 1757,
      "Ġkháº£": 1758,
      "tÆ°Æ¡ng": 1759,
      "va": 1760,
      "ĠÄĳáº¥u": 1761,
      "Ġthoáº¡i": 1762,
      "Ġtranh": 1763,
      "ver": 1764,
      "áº·n": 1765,
      "29": 1766,
      "Ġláº¥y": 1767,
      "Ġká»¹": 1768,
      "2017": 1769,
      "Ġbay": 1770,
      "Ġ18": 1771,
      "Ġchia": 1772,
      "ĠcÃłng": 1773,
      "ĠÄĳáº£m": 1774,
      "Ãłm": 1775,
      "ĠquÃ½": 1776,
      "Ġmáº«u": 1777,
      "Ġlá»±a": 1778,
      "©p": 1779,
      "ĠlÆ°u": 1780,
      "ĠtrÆ°á»Łng": 1781,
      "ĠtÆ°Æ¡ng": 1782,
      "Ġdanh": 1783,
      "ÃĸÃĲ": 1784,
      "Ġ'": 1785,
      "ĠNhÆ°": 1786,
      "od": 1787,
      "44": 1788,
      "º©u": 1789,
      "28": 1790,
      "Ġá»": 1791,
      "Ġ07": 1792,
      "39": 1793,
      "ĠnghÄ©a": 1794,
      "âĢĿ.": 1795,
      "Ġnghe": 1796,
      "Ġtá»ĳi": 1797,
      "Ġtráº£": 1798,
      "Ġbá»ĳ": 1799,
      "ow": 1800,
      "ĠrÃµ": 1801,
      "Ġ+": 1802,
      "tiá»ĩn": 1803,
      "Ġráº»": 1804,
      "à³į": 1805,
      "ĀĀĀĀĀĀĀĀĀĀĀĀĀĀĀĀ": 1806,
      "Ġtiá»ĩn": 1807,
      "vui": 1808,
      "35": 1809,
      "Ġyáº¿u": 1810,
      "Ġcá»¥": 1811,
      "ĠIn": 1812,
      "ĠThi": 1813,
      "ĳÃ¢u": 1814,
      "ÄĳÃ¢u": 1815,
      "Ã³m": 1816,
      "ĠÄĳoÃłn": 1817,
      "ĠNhÃ": 1818,
      "ĠÄĳÃ¢u": 1819,
      "ĠluáºŃt": 1820,
      "ĠNhÃł": 1821,
      "âĢĻ": 1822,
      "Ġon": 1823,
      "ĠÄĳáº¡t": 1824,
      "á»ĵm": 1825,
      "µn": 1826,
      "ĠhÆ°á»Łng": 1827,
      "Ġvui": 1828,
      "uÃ¢n": 1829,
      "ĠÃ¢m": 1830,
      "iá»ĩp": 1831,
      "Ġbiá»ĥu": 1832,
      "te": 1833,
      "37": 1834,
      "háº§n": 1835,
      "gÃłnh": 1836,
      "ou": 1837,
      "Ġthe": 1838,
      "ĠThá»": 1839,
      "äº": 1840,
      "Ġå": 1841,
      "CM": 1842,
      "Ġ30": 1843,
      "âĤ¬": 1844,
      "Ġtá»ķng": 1845,
      "áº¯p": 1846,
      "http": 1847,
      "ÃĬÃĩ": 1848,
      "Ġchá»©": 1849,
      "ĠtoÃ¡n": 1850,
      "ĠNgh": 1851,
      "Ġdá»¥c": 1852,
      "Æ¯": 1853,
      "Ġcuá»ĳi": 1854,
      "Ġlá»ĩ": 1855,
      "Ãłu": 1856,
      "ngÃłnh": 1857,
      "Ġcáº¡nh": 1858,
      "tháº§n": 1859,
      "ĠluáºŃn": 1860,
      "Ġgá»ĵm": 1861,
      "Ġrá»": 1862,
      "Ġ24": 1863,
      "Â¡Â±": 1864,
      "ĠngÃłnh": 1865,
      "tÆ°á»Łng": 1866,
      "ĠchÆ°Æ¡ng": 1867,
      "ĠÃŃt": 1868,
      "nguá»ĵn": 1869,
      "Â¡Â°": 1870,
      "táº£i": 1871,
      "ºµn": 1872,
      "ĠtÆ°á»Łng": 1873,
      "Ġco": 1874,
      "á»įc": 1875,
      "Ġxuá»ĳng": 1876,
      "ĠphÃ¹": 1877,
      "ĠÄĲá»©c": 1878,
      "Ġrá»Ļng": 1879,
      "Ġgame": 1880,
      "Ġnguá»ĵn": 1881,
      "ep": 1882,
      "ĠPhi": 1883,
      "ĠgÃ¡i": 1884,
      "ri": 1885,
      "hiá»ĩt": 1886,
      "??": 1887,
      "Ġtáº£i": 1888,
      "Ġtháº§n": 1889,
      "ĠdÃ¹": 1890,
      "Ã£ng": 1891,
      "ĠÃ´": 1892,
      "ĠÄĳá»Ļc": 1893,
      "Ġ17": 1894,
      "\",": 1895,
      "Ġla": 1896,
      "ĠTo": 1897,
      "ĠCH": 1898,
      "Ġ[": 1899,
      "Ġxá»Ń": 1900,
      "Ġlá»Ľp": 1901,
      "ĠHá»ĵ": 1902,
      "áº·ng": 1903,
      "ĠThÃłnh": 1904,
      "ĠváºŃn": 1905,
      "Ġkhoa": 1906,
      "ni": 1907,
      "ıe": 1908,
      "çļ": 1909,
      "ĠdÆ°á»¡ng": 1910,
      "ĠâĢ¦": 1911,
      "tháº¥t": 1912,
      "ĠNáº¿u": 1913,
      "ĠÃ¡o": 1914,
      "ĠmÃ´": 1915,
      "ĠriÃªng": 1916,
      "ĠthuÃª": 1917,
      "ĠvÃ¹ng": 1918,
      "ĠÂ»": 1919,
      "Ġtháº¥t": 1920,
      "ob": 1921,
      "Ġcá»ĳ": 1922,
      "Ãºi": 1923,
      "38": 1924,
      "uÃ´i": 1925,
      "ak": 1926,
      "Ġ08": 1927,
      "se": 1928,
      "ĠquÃ¢n": 1929,
      "ĳÃ´": 1930,
      "Ġtá»©c": 1931,
      "ĠÄĲÃ´ng": 1932,
      "ĠNháºŃt": 1933,
      "ÃĵÃĲ": 1934,
      "Ġ...": 1935,
      "ĠkhÃ": 1936,
      "ĠvÃłng": 1937,
      "ĠmÃ´i": 1938,
      "ÄĳÃ´": 1939,
      "Ġtá»Ļ": 1940,
      "áº©m": 1941,
      "çļĦ": 1942,
      "viá»ĩn": 1943,
      "ĠcÃ¡n": 1944,
      "Ġxin": 1945,
      "ĠphÃŃa": 1946,
      "Ġviá»ĩn": 1947,
      "áºŃt": 1948,
      "ĠkhÃ¡": 1949,
      "ĠChÃŃnh": 1950,
      "ĠhÃ£y": 1951,
      "ĠHá»Ļi": 1952,
      "ĠÄĳÃ´": 1953,
      "Ġtu": 1954,
      "ĠchÃº": 1955,
      "ĠtráºŃn": 1956,
      "ĠCÃ³": 1957,
      "Ġkhá»ıe": 1958,
      "Ġxa": 1959,
      "Ġbiá»ĥn": 1960,
      "ĳÃ¡ng": 1961,
      "ÄĳÃ¡ng": 1962,
      "Ġ$": 1963,
      "Ġchá»ĭu": 1964,
      "á»Łi": 1965,
      "nhu": 1966,
      "Ã¨n": 1967,
      "tai": 1968,
      "ĠÄĳÃ¡ng": 1969,
      "huáºŃn": 1970,
      "Ġtráº¡ng": 1971,
      "nÃ¢ng": 1972,
      "Ġ13": 1973,
      "ĠTuy": 1974,
      "ĠlÃ¢u": 1975,
      "ÃĦÃª": 1976,
      "ab": 1977,
      "ĠnÃ¢ng": 1978,
      "Ġtáº§n": 1979,
      "»Ļn": 1980,
      "áº§m": 1981,
      "56": 1982,
      "»Ļng": 1983,
      "ĠsÆ¡": 1984,
      "há»Ľ": 1985,
      "Ġpháº¡m": 1986,
      "Ġnhu": 1987,
      "Ġhoáº¡ch": 1988,
      "ĠChi": 1989,
      "ĠThá»ĭ": 1990,
      "Ġcháº¯c": 1991,
      "Ġdáº¡ng": 1992,
      "Ġkiáº¿m": 1993,
      "ĠnháºŃt": 1994,
      "Ġtá»ĳ": 1995,
      "ĠKhÃ´ng": 1996,
      "º©y": 1997,
      "guy": 1998,
      "Ġkháº©u": 1999,
      "di": 2000,
      "ÃģÃĭ": 2001,
      "ĳÃłn": 2002,
      "ÄĳÃłn": 2003,
      "ess": 2004,
      "tháºŃ": 2005,
      "Ġnghá»ĭ": 2006,
      "Ġ100": 2007,
      "ĠcáºŃp": 2008,
      "Ġhá»ĵi": 2009,
      "°Æ¡": 2010,
      "Æ°Æ¡": 2011,
      "nhÃ©": 2012,
      "ĠnhÃ©": 2013,
      "ĠdÃłnh": 2014,
      "Ġphá»§": 2015,
      "Ġhuyá»ĩn": 2016,
      "ĠÄĳÃłn": 2017,
      "Ġdá»": 2018,
      "Ġ2018": 2019,
      "ĠtháºŃ": 2020,
      "ĠdÃ²ng": 2021,
      "Ãŀ": 2022,
      "ĠThá»§": 2023,
      "Þ§": 2024,
      "ĠMá»Ļt": 2025,
      "gá»§": 2026,
      "Ġâ": 2027,
      "Ġ{": 2028,
      "Ġ#": 2029,
      "ly": 2030,
      "Ġcu": 2031,
      "ĳau": 2032,
      "Äĳau": 2033,
      "ĠDÆ°Æ¡ng": 2034,
      "æľ": 2035,
      "¥n": 2036,
      "ngá»§": 2037,
      "Ġweb": 2038,
      "ĠhÃ´m": 2039,
      "ĠÃĤ": 2040,
      "à²¿": 2041,
      "hiá»ĩn": 2042,
      "ĠBáº¯c": 2043,
      "Ġ&": 2044,
      "Ġngá»§": 2045,
      "Ġuá»ĳng": 2046,
      "ĠÄĳau": 2047,
      "ĠLong": 2048,
      "ĳÃ´ng": 2049,
      "ÄĳÃ´ng": 2050,
      "Ġháº¯n": 2051,
      "ĠÄĳoáº¡n": 2052,
      "Ġláº¡nh": 2053,
      "Ġgá»Ńi": 2054,
      "ĳÃ´i": 2055,
      "ÄĳÃ´i": 2056,
      "ĠÄĳÃ´ng": 2057,
      "Iá»": 2058,
      "Ġká»ĥ": 2059,
      "ĠHoÃłng": 2060,
      "nguy": 2061,
      "ĠsÃ¢n": 2062,
      "nhá»Ľ": 2063,
      "Ġsim": 2064,
      "ĠÄĳÃ´i": 2065,
      "Ġduy": 2066,
      "ir": 2067,
      "Ġsáº»": 2068,
      "ĠbÃ¡c": 2069,
      "ĠsÆ": 2070,
      "Ġnhá»Ľ": 2071,
      "ĠsÆ°": 2072,
      "º¯m": 2073,
      "ĠbÆ°á»Ľc": 2074,
      "ĠtrÃ²": 2075,
      "ĠÃŃch": 2076,
      "Ġcháº¿t": 2077,
      "Th": 2078,
      "ub": 2079,
      "Ġtuyáº¿n": 2080,
      "ĠSÆ¡n": 2081,
      "ĠlÃ£n": 2082,
      "Trong": 2083,
      "Ġvá»ĳn": 2084,
      "ue": 2085,
      "ack": 2086,
      "thiá»ĩn": 2087,
      "ĠHáº£i": 2088,
      "21": 2089,
      "45": 2090,
      "Ġthiá»ĩn": 2091,
      "ĠKá»": 2092,
      "ĠÆ°u": 2093,
      "ĠphÃ©p": 2094,
      "ff": 2095,
      "ite": 2096,
      "ĠvÃ²ng": 2097,
      "tÃ´": 2098,
      "ĠHoa": 2099,
      "Ġtá»ĭ": 2100,
      "Ġ012": 2101,
      "Ġtráº¯ng": 2102,
      "Ġuy": 2103,
      "tuáº§n": 2104,
      "Ġtai": 2105,
      "Ġgiá»ĳng": 2106,
      "Ġma": 2107,
      "Ġchá»¯a": 2108,
      "Ġ2019": 2109,
      "2016": 2110,
      "ĠÄĲá»ĵng": 2111,
      "Ġxanh": 2112,
      "Ġbá»ķ": 2113,
      "ail": 2114,
      "ĠÃĶ": 2115,
      "ĠxÃ©t": 2116,
      "ĠmÃ´n": 2117,
      "CÃ¡c": 2118,
      "ĠÄĳá»įc": 2119,
      "Ġï¿½ï¿½ï¿½ï¿½": 2120,
      "ĠNhá»¯ng": 2121,
      "á»ģm": 2122,
      "háº¯ng": 2123,
      "náº±m": 2124,
      "åľ": 2125,
      "tháº¯ng": 2126,
      "ĠcÆ°á»£c": 2127,
      "net": 2128,
      "Ġlao": 2129,
      "háº¡c": 2130,
      "Ġcháº¡y": 2131,
      "ĠphÃºt": 2132,
      "nÃłng": 2133,
      "ĠhÃ²a": 2134,
      "Ġ2017": 2135,
      "Ġtáº§ng": 2136,
      "Ġtháº¯ng": 2137,
      "Ġchiá»ģu": 2138,
      "Ġnáº±m": 2139,
      "áº§y": 2140,
      "ĠThÃ¡i": 2141,
      "Ġtuáº§n": 2142,
      "Ġ}": 2143,
      "thÆ": 2144,
      "ook": 2145,
      "ĠTÃ¢y": 2146,
      "ná»ģn": 2147,
      "ĠnÃłng": 2148,
      "ĠnghiÃªn": 2149,
      "ĠkÃŃch": 2150,
      "Ġngoáº¡i": 2151,
      "ĠphÃ¡": 2152,
      "á»ĳc": 2153,
      "ĠthÆ": 2154,
      "ĠmÃ¹a": 2155,
      "0000": 2156,
      "hiáº¿u": 2157,
      "ĠTR": 2158,
      "op": 2159,
      "79": 2160,
      "Ġnguy": 2161,
      "ĠChá»§": 2162,
      "Ġná»ģn": 2163,
      "º¥y": 2164,
      "ĠtrÃ¡i": 2165,
      "ĠmÃ³n": 2166,
      "ĠNhÆ°n": 2167,
      "Ġ25": 2168,
      "ĠNhÆ°ng": 2169,
      "º¤": 2170,
      "áº¡p": 2171,
      "Ġcá»Ļng": 2172,
      "hai": 2173,
      "ĠNgÆ°á»Ŀi": 2174,
      "ĠÄĳÃ³ng": 2175,
      "thiáº¿u": 2176,
      "2020": 2177,
      "nhiá»ĩt": 2178,
      "ĠBáº¡n": 2179,
      "Ã¡u": 2180,
      "Ġchá»ĵng": 2181,
      "Ġváº»": 2182,
      "ĠhÃºt": 2183,
      "º·ng": 2184,
      "Ġkhoáº£n": 2185,
      "Ġnhiá»ĩt": 2186,
      "49": 2187,
      "----": 2188,
      "º¯p": 2189,
      "ĠBan": 2190,
      "Ġtuyá»ĩt": 2191,
      "Ġthiáº¿u": 2192,
      "ĠKhi": 2193,
      "Ġtrá»Ŀi": 2194,
      "Theo": 2195,
      "hÃ³m": 2196,
      "ãĢĤ": 2197,
      "59": 2198,
      "ĠnÃ³n": 2199,
      "ce": 2200,
      "Ġkhá»ıi": 2201,
      "ĠUS": 2202,
      "Ġmá»ģ": 2203,
      "Ġsuáº¥t": 2204,
      "ĠÄĳá»©ng": 2205,
      "hÃ´i": 2206,
      "ĠÄĳÃ¡p": 2207,
      "46": 2208,
      "gÃ¢n": 2209,
      "ĠkÃ©o": 2210,
      "ra": 2211,
      "áº£m": 2212,
      "thÃ´i": 2213,
      "Ġcháº³ng": 2214,
      "ĠkhÃ³a": 2215,
      "áºŃy": 2216,
      "Ġvá»£": 2217,
      "Ġphá»ĳi": 2218,
      "ĠSau": 2219,
      "ĠthÃ´i": 2220,
      "Ġgiáº£n": 2221,
      "ĠvÃłi": 2222,
      "48": 2223,
      "ĠTá»ķng": 2224,
      "Ġá»§": 2225,
      "78": 2226,
      "ĠgiÃ¡c": 2227,
      "háº¥p": 2228,
      "Ġmá»ģm": 2229,
      "Ã¨o": 2230,
      "Ã³i": 2231,
      "Ġcam": 2232,
      "ĠNgo": 2233,
      "ĠgÃ³p": 2234,
      "Ġghi": 2235,
      "ĠháºŃu": 2236,
      "ĠHÃłn": 2237,
      "ĠViet": 2238,
      "Ġdáº§u": 2239,
      "ate": 2240,
      "Ġdá»ĭ": 2241,
      "áº¯t": 2242,
      "ĠTÃ´i": 2243,
      "han": 2244,
      "ĠÄĲiá»ģu": 2245,
      "Ġquay": 2246,
      "nhÃ³m": 2247,
      "ĠcÆ°á»Ŀi": 2248,
      "art": 2249,
      "ik": 2250,
      "ĠchÃºt": 2251,
      "Ġva": 2252,
      "ıa": 2253,
      "áº¢": 2254,
      "Ġvá»įng": 2255,
      "Ġof": 2256,
      "ĠThiÃªn": 2257,
      "ĠTráº§n": 2258,
      "Ġand": 2259,
      "ĠnhÃ³m": 2260,
      "Ġsá»Ńa": 2261,
      "ml": 2262,
      "Ġtá»ĭc": 2263,
      "Ġtá»ĭch": 2264,
      "ngÃ¢n": 2265,
      "ın": 2266,
      "nháº¡c": 2267,
      "ĠquáºŃn": 2268,
      "ĠnÃ³ng": 2269,
      "ĠChÃŃ": 2270,
      "ĠhÃ£ng": 2271,
      "Ġmay": 2272,
      "Â¡Â¡": 2273,
      "ĠkhÄĥn": 2274,
      "gon": 2275,
      ".âĢĿ": 2276,
      "ĠngÃ¢n": 2277,
      "tuyá»ĥn": 2278,
      "ĠBáº£n": 2279,
      "Ġnháº¡c": 2280,
      "ĠDo": 2281,
      "Ġlá»Ļ": 2282,
      "ĠÄĲÃ": 2283,
      "ĠTrÆ°á»Ŀng": 2284,
      "Ġpháº£n": 2285,
      "thuáºŃn": 2286,
      "76": 2287,
      "Ġtuyá»ĥn": 2288,
      "TT": 2289,
      "ĠtÃ´": 2290,
      "háº¹": 2291,
      "ÃİÂª": 2292,
      "âĢĿ,": 2293,
      "Ġ21": 2294,
      "ĠthuáºŃn": 2295,
      "įt": 2296,
      "HCM": 2297,
      "ĠlÃłn": 2298,
      "ÂºÃį": 2299,
      "ĠthiÃªn": 2300,
      "Ġe": 2301,
      "Þĥ": 2302,
      "CH": 2303,
      "ĠmÃłn": 2304,
      "Ġgiáº¥y": 2305,
      "ĠVá»Ľi": 2306,
      "\":": 2307,
      "ut": 2308,
      "ĳÃªm": 2309,
      "ÄĳÃªm": 2310,
      "ĠcÃ¢n": 2311,
      "ĠsÃ¢u": 2312,
      "ĠPhÃº": 2313,
      "ĠhÆ¡i": 2314,
      "ĠdÃłng": 2315,
      "háº±m": 2316,
      "ıng": 2317,
      "Ġmáº¡i": 2318,
      "Ġhuy": 2319,
      "hÃ¡i": 2320,
      "Ġ22": 2321,
      "Ġtrai": 2322,
      "ĠGiÃ": 2323,
      "Ġchá»Ĺ": 2324,
      "if": 2325,
      "Ġmá»¹": 2326,
      "°Æ¡i": 2327,
      "Æ°Æ¡i": 2328,
      "Nhá»¯ng": 2329,
      "Ġhttp": 2330,
      "ĠkÃŃnh": 2331,
      "nháº¹": 2332,
      "åı": 2333,
      "Ġhiá»ĥm": 2334,
      "ĠlÃ£nh": 2335,
      "ĠÄĳÃªm": 2336,
      "age": 2337,
      "Ġmong": 2338,
      "pp": 2339,
      "ark": 2340,
      "Ġnháº¹": 2341,
      "__": 2342,
      "ghá»ī": 2343,
      "à²°": 2344,
      "40": 2345,
      "ĠLÃª": 2346,
      "Ġlá»ħ": 2347,
      "da": 2348,
      "58": 2349,
      "ĠZ": 2350,
      "å¤": 2351,
      "ä»": 2352,
      "Ãºa": 2353,
      "Ġsáº¡ch": 2354,
      "ĠÄĳá»ı": 2355,
      "ĠtrÃ¡ch": 2356,
      "áº³ng": 2357,
      "Ġtáº·ng": 2358,
      "tháº¥p": 2359,
      "Ġj": 2360,
      "nghá»ī": 2361,
      "Ġæ": 2362,
      "ĠGiÃ¡": 2363,
      "\".": 2364,
      "ĠTrang": 2365,
      "hÆ°á»Łng": 2366,
      "Ġtháº¥p": 2367,
      "ĠPH": 2368,
      "Ġnghá»ī": 2369,
      "thÆ°á»Łng": 2370,
      "ass": 2371,
      "Ġ2020": 2372,
      "ĠThÃ¡ng": 2373,
      "ĠQuáºŃn": 2374,
      "Ġthá»§y": 2375,
      "ind": 2376,
      "ĠthÆ°á»Łng": 2377,
      "('": 2378,
      "nháº±m": 2379,
      "ºł": 2380,
      "Má»Ļt": 2381,
      "ĠTÃ¢n": 2382,
      "nÃ´ng": 2383,
      "ĠdÃ¢y": 2384,
      "Ġnháº±m": 2385,
      "áºł": 2386,
      "ĠsiÃªu": 2387,
      "ÃīÃı": 2388,
      "ÃĪÃķ": 2389,
      "tÆ°á»Ľng": 2390,
      "co": 2391,
      "à²¾": 2392,
      "ĳÃło": 2393,
      "ÄĳÃło": 2394,
      "Ġchá»īn": 2395,
      "Ġkháº£o": 2396,
      "47": 2397,
      "ĠnÃ´ng": 2398,
      "Ġ2016": 2399,
      "Â·Â¢": 2400,
      "ie": 2401,
      "ĠtÆ°á»Ľng": 2402,
      "ĠNH": 2403,
      "ĠLan": 2404,
      "Ġ23": 2405,
      "ĠtrÃ¡nh": 2406,
      "ĠÃ¡nh": 2407,
      "ile": 2408,
      "hao": 2409,
      "ity": 2410,
      "ĠÄĳÃło": 2411,
      "ard": 2412,
      "ĠVÃ¬": 2413,
      "ĠLo": 2414,
      "Ġchá»īnh": 2415,
      "ĠPhÃ¡p": 2416,
      "Ġháº¡i": 2417,
      "ts": 2418,
      "Ġgiá»": 2419,
      "Ġcáº£i": 2420,
      "thÃ¡i": 2421,
      "åĲ": 2422,
      "tÃ¹": 2423,
      "hÃº": 2424,
      "ĠÄĲÃ¢y": 2425,
      "ax": 2426,
      "ig": 2427,
      "ĠLiÃªn": 2428,
      "ien": 2429,
      "ĠÄĳáº£o": 2430,
      "Ġháº¥p": 2431,
      "vai": 2432,
      "ĠmÃ¡u": 2433,
      "ĠVN": 2434,
      "ore": 2435,
      "Tá»": 2436,
      "ĠthÃ¡i": 2437,
      "ont": 2438,
      "ĠCho": 2439,
      "hang": 2440,
      "Ġni": 2441,
      "................": 2442,
      "ĠNgá»įc": 2443,
      "Ġháº¡": 2444,
      "ĠChÃ¢u": 2445,
      "Ġ>": 2446,
      "âĪ": 2447,
      "ÞĪ": 2448,
      "Ġsai": 2449,
      "à¸": 2450,
      "qu": 2451,
      "åħ": 2452,
      "ĠchÄĥm": 2453,
      "Ã¹a": 2454,
      "uá»ĳt": 2455,
      "Ġnghá»ģ": 2456,
      "iÃª": 2457,
      "Ġtáº¥n": 2458,
      "Ġvai": 2459,
      "Ã¨m": 2460,
      "ĠtÃ¹": 2461,
      "á»ħm": 2462,
      "Ġ50": 2463,
      "Ġ26": 2464,
      "ĠtáºŃn": 2465,
      "st": 2466,
      "ná»ĳi": 2467,
      "ĠkhÃ¡m": 2468,
      "Ġkiá»ĥu": 2469,
      "Ġthá»Ń": 2470,
      "å®": 2471,
      "ĠTá»«": 2472,
      "Ġná»ĳi": 2473,
      "ĠÄĲÃł": 2474,
      "ĠchÃ³ng": 2475,
      "Ġgá»Ĺ": 2476,
      "tiá»ĥu": 2477,
      "ĠmÃ¡i": 2478,
      "Ġxáº£y": 2479,
      "gá»ĵi": 2480,
      "á»ĭn": 2481,
      "2015": 2482,
      "ï¾": 2483,
      "ÃĲÃĲ": 2484,
      "háº©m": 2485,
      "ĠlÆ°á»£t": 2486,
      "è¯": 2487,
      "ĠPhÃ²ng": 2488,
      "Ã£o": 2489,
      "Ġdáº¥u": 2490,
      "ĠVÃ": 2491,
      "ĠmÃ£i": 2492,
      "57": 2493,
      "Ġmáº·c": 2494,
      "ĳem": 2495,
      "Äĳem": 2496,
      "nha": 2497,
      "ĠlÄ©nh": 2498,
      "âĢ¢": 2499,
      "ĠVÃł": 2500,
      "ĠÞĩ": 2501,
      "Ġ01": 2502,
      "tháº©m": 2503,
      "ĠÄĳem": 2504,
      "Ġmáº¥y": 2505,
      "Ġtiá»ĥu": 2506,
      "Ġtháº©m": 2507,
      "ngá»ĵi": 2508,
      "ĠxÃºc": 2509,
      "Ġmáº¯c": 2510,
      "Ġlinh": 2511,
      "tor": 2512,
      "Ġsáº¡n": 2513,
      "thÃº": 2514,
      "ĠcáºŃu": 2515,
      "la": 2516,
      "thai": 2517,
      "Ġngá»ĵi": 2518,
      "ĠthÃº": 2519,
      "ĠXuÃ¢n": 2520,
      "Ġkia": 2521,
      "ĠTin": 2522,
      "Þī": 2523,
      "ĠmáºŃt": 2524,
      "º¾": 2525,
      "ĠxuyÃªn": 2526,
      "»Ľm": 2527,
      "ĠcÆ°á»Ŀng": 2528,
      "ĠGiang": 2529,
      "Ġbuá»ķi": 2530,
      "AN": 2531,
      "Ġquáº§n": 2532,
      "Ġquanh": 2533,
      "ĠTháº¿": 2534,
      "gÃ´i": 2535,
      "Ġcháº¥p": 2536,
      "uáº¥n": 2537,
      "site": 2538,
      "na": 2539,
      "ht": 2540,
      "tÃ³c": 2541,
      "áº¾": 2542,
      "ĳen": 2543,
      "Äĳen": 2544,
      "ĠÐ": 2545,
      "Ġtruy": 2546,
      "Ġliá»ģn": 2547,
      "ĠChÆ°Æ¡ng": 2548,
      "Ġsá»Ľm": 2549,
      "ĠtÃ³c": 2550,
      "thao": 2551,
      "ĠNG": 2552,
      "áºŃu": 2553,
      "Ġ03": 2554,
      "ä¹": 2555,
      "GiÃ": 2556,
      "Â¡Â¿": 2557,
      "ĠÆ¡n": 2558,
      "ngon": 2559,
      "á»ĭnh": 2560,
      "era": 2561,
      "ĠcÅ©": 2562,
      "Ġcháº¯n": 2563,
      "Ġmiá»ģn": 2564,
      "69": 2565,
      "GiÃ¡": 2566,
      "BND": 2567,
      "ĠbÃ¡nh": 2568,
      "68": 2569,
      "ĠÄĳen": 2570,
      "nuÃ´i": 2571,
      "ĠrÄĥng": 2572,
      "ĠphiÃªn": 2573,
      "ĠBa": 2574,
      "Ġchá»¯": 2575,
      "CÃ³": 2576,
      "Ġthai": 2577,
      "Xem": 2578,
      "tel": 2579,
      "Ġ28": 2580,
      "ĠThÃ´ng": 2581,
      "Ġxo": 2582,
      "Ġdáº¡y": 2583,
      "Ġpha": 2584,
      "load": 2585,
      "háº¯c": 2586,
      "ĠNguyÃªn": 2587,
      "KhÃ´ng": 2588,
      "ĠnuÃ´i": 2589,
      "ĠKho": 2590,
      "Ġ27": 2591,
      "ĠKinh": 2592,
      "Báº¡n": 2593,
      "ĠHÃ²a": 2594,
      "niá»ĩm": 2595,
      "Ġonline": 2596,
      "ĠlÃ¡": 2597,
      "ĠGia": 2598,
      "Ġngon": 2599,
      "Ġtráº£i": 2600,
      "Ġniá»ĩm": 2601,
      "vÆ°á»£t": 2602,
      "á»ĭa": 2603,
      "háº£o": 2604,
      "ord": 2605,
      "Ġtá»ĳc": 2606,
      "Ġkhá»Łi": 2607,
      "ink": 2608,
      "Ġthao": 2609,
      "Ġlá»Ĺi": 2610,
      "Ġsuy": 2611,
      "ĀĀĀĀĀĀĀĀĀĀĀĀĀĀĀĀĀĀĀĀĀĀĀĀĀĀĀĀĀĀĀĀ": 2612,
      "ĠKim": 2613,
      "åľ¨": 2614,
      "Ġphi": 2615,
      "ËĨ": 2616,
      "Þİ": 2617,
      "ĠQuáº£ng": 2618,
      "Ġbáº¿p": 2619,
      "Ġká»·": 2620,
      "ngÃ´i": 2621,
      "Ġha": 2622,
      "ĠvÆ°á»£t": 2623,
      "Ġtim": 2624,
      "MT": 2625,
      "are": 2626,
      "ĠCon": 2627,
      "ĠmÃ£": 2628,
      "ost": 2629,
      "ĠLá»": 2630,
      "gá»Ŀ": 2631,
      "=\"": 2632,
      "ĠÄĳáº©y": 2633,
      "ngá»Ŀ": 2634,
      "Ġngá»Ŀ": 2635,
      "ÃķÃ¢": 2636,
      "tháº£o": 2637,
      "Ġnhá»Ŀ": 2638,
      "ĠTheo": 2639,
      "ĠngÃ´i": 2640,
      "32": 2641,
      "Qu": 2642,
      "Ġ29": 2643,
      "ÃīÃº": 2644,
      "ĠUSD": 2645,
      "cm": 2646,
      "Náº¿u": 2647,
      "niÃªn": 2648,
      "Ġkháº¯c": 2649,
      "Ġ//": 2650,
      "Ġáº¥n": 2651,
      "Ġsá»£": 2652,
      "NgÃły": 2653,
      "ull": 2654,
      "ÃĶÃĤ": 2655,
      "ĠMÃ¡y": 2656,
      "ĠniÃªn": 2657,
      "Ġtháº£o": 2658,
      "ÞĨ": 2659,
      "iáº¿ng": 2660,
      "pe": 2661,
      "ĠPhÆ°Æ¡ng": 2662,
      "Ġláº½": 2663,
      "ĠbáºŃt": 2664,
      "CÃ´ng": 2665,
      "ĠtrÃ¬": 2666,
      "!!": 2667,
      "hiá»ĩu": 2668,
      "Ġthuáº¿": 2669,
      "Ġnha": 2670,
      "Ġquen": 2671,
      "ĠEm": 2672,
      "no": 2673,
      "Ġcha": 2674,
      "ĠsÃ³c": 2675,
      "ĠPhong": 2676,
      "náº·ng": 2677,
      "est": 2678,
      "ĠNinh": 2679,
      "unc": 2680,
      "VN": 2681,
      "áºµn": 2682,
      "pl": 2683,
      "Ġcáº¥u": 2684,
      "ĠBáº£o": 2685,
      "ick": 2686,
      "thiá»ĩu": 2687,
      "Ġnáº·ng": 2688,
      "Ġthiá»ĩu": 2689,
      "31": 2690,
      "¥ng": 2691,
      "ne": 2692,
      "Ġgiai": 2693,
      "Å©i": 2694,
      "ĠNgÃły": 2695,
      "ome": 2696,
      "çĶ": 2697,
      "BÃ¡n": 2698,
      "náº¡n": 2699,
      "ä½": 2700,
      "Ġláº¡c": 2701,
      "Ġsá»¯a": 2702,
      "ĠThu": 2703,
      "80": 2704,
      "ĠKá»³": 2705,
      "iz": 2706,
      "ld": 2707,
      "Ġnáº¡n": 2708,
      "ĠthÆ¡": 2709,
      "ox": 2710,
      "75": 2711,
      "à¼": 2712,
      "ĠquÃ¡n": 2713,
      "amp": 2714,
      "ÄĤ": 2715,
      "hÃºc": 2716,
      "ment": 2717,
      "ºŃm": 2718,
      "tic": 2719,
      "hÃŃ": 2720,
      "ĠcÃº": 2721,
      "ĠgiÃ¡m": 2722,
      "hÄĥm": 2723,
      "ers": 2724,
      "CO": 2725,
      "Iá»Ĩ": 2726,
      "ort": 2727,
      "âĤ«": 2728,
      "ĠChÃºng": 2729,
      "Ġbáº¡c": 2730,
      "à²¦": 2731,
      "PT": 2732,
      "Ġnhiá»ħm": 2733,
      "tÃłu": 2734,
      "Ġluyá»ĩn": 2735,
      "âĢ¦.": 2736,
      "giÃ": 2737,
      "ĠLinh": 2738,
      "ĠÄĲáº£ng": 2739,
      "acc": 2740,
      "Ġ?": 2741,
      "ÄĲá»ĥ": 2742,
      "ĠKH": 2743,
      "ĠchÃ¢u": 2744,
      "Ġphá»ķ": 2745,
      "ĠTÆ": 2746,
      "æĪ": 2747,
      "ĠÃĶn": 2748,
      "Vá»Ľi": 2749,
      "ĠtÃłu": 2750,
      "Sau": 2751,
      "und": 2752,
      "Ġko": 2753,
      "ĠTÆ°": 2754,
      "Ġxáº¿p": 2755,
      "Trang": 2756,
      "ĳÃ¨n": 2757,
      "ÄĳÃ¨n": 2758,
      "thÄĥm": 2759,
      "giÃ¡": 2760,
      "ĠmÆ¡": 2761,
      "ĠRe": 2762,
      "ĠÄĳá»ĳc": 2763,
      "ews": 2764,
      "ĠthÄĥm": 2765,
      "ĠVÅ©": 2766,
      "Ġchá»©a": 2767,
      "Ġtá»Ļi": 2768,
      "ĠhÆ°Æ¡ng": 2769,
      "ĠNhi": 2770,
      "Ġbáº£ng": 2771,
      "all": 2772,
      "»©a": 2773,
      "Ġkim": 2774,
      "AM": 2775,
      "gá»¯": 2776,
      "gÄĥn": 2777,
      "An": 2778,
      "Ã¹i": 2779,
      "ĠChÃºa": 2780,
      "háº³ng": 2781,
      "Ġsung": 2782,
      "ÃĴÂª": 2783,
      "Ġcáº¯t": 2784,
      "áºµng": 2785,
      "ĠHá»ĵng": 2786,
      "ĠÄĳÃ¨n": 2787,
      "áº¤": 2788,
      "TÃ´i": 2789,
      "ĠPháºŃt": 2790,
      "Ġláº¯m": 2791,
      "Thá»©": 2792,
      "Ġ2015": 2793,
      "ngá»¯": 2794,
      "âĦ": 2795,
      "ĠChá»": 2796,
      "Ġsáºµn": 2797,
      "ĠPhim": 2798,
      "Ġchá»Ŀ": 2799,
      "gÆ°Æ¡i": 2800,
      "ĠhÃłi": 2801,
      "ach": 2802,
      "thÃºc": 2803,
      "ĠPM": 2804,
      "Ġngá»¯": 2805,
      "Ġcáº§m": 2806,
      "ĠhÃ¡t": 2807,
      "ĠQuang": 2808,
      "54": 2809,
      "Ġsex": 2810,
      "Ġchu": 2811,
      "ĠviÃªm": 2812,
      "ngÄĥn": 2813,
      "Ġquáº£ng": 2814,
      "ga": 2815,
      "ĠthÃºc": 2816,
      "Ġ)": 2817,
      "ÃĲÃĤ": 2818,
      "âĢĺ": 2819,
      "Ġxu": 2820,
      "Ġxong": 2821,
      "2013": 2822,
      "ĠNga": 2823,
      "ĠdÃ¡ng": 2824,
      "ber": 2825,
      "º¹n": 2826,
      "Þ©": 2827,
      "ĠngÄĥn": 2828,
      "ĠLe": 2829,
      "¥p": 2830,
      "log": 2831,
      "Ġly": 2832,
      "æĸ": 2833,
      "2014": 2834,
      "ÃĴÃĶ": 2835,
      "ght": 2836,
      "tan": 2837,
      "how": 2838,
      "ĠThe": 2839,
      "ĠhÃ´n": 2840,
      "oÃłn": 2841,
      "Nh": 2842,
      "Æ¯á»": 2843,
      "ĠChá»ī": 2844,
      "Ġgá»ĳc": 2845,
      "ĠlÃŃ": 2846,
      "âĢĶ": 2847,
      "à³ģ": 2848,
      "sp": 2849,
      "Ġá»ķn": 2850,
      "tháº³ng": 2851,
      "ĠDu": 2852,
      "Ġtháº³ng": 2853,
      "TC": 2854,
      "ĠSá»Ł": 2855,
      "60": 2856,
      "Ġlai": 2857,
      "Ġáº¢": 2858,
      "ĠtÆ°Æ¡i": 2859,
      "Kh": 2860,
      "ĠphÃª": 2861,
      "Â¡Â¿Â¡": 2862,
      "Ġláº¡": 2863,
      "ĠVá»": 2864,
      "Ãªnh": 2865,
      "ĠÃ±": 2866,
      "ĠNhÃ¢n": 2867,
      "ĠÃĶng": 2868,
      "ĠphÃºc": 2869,
      "ĠNgoÃłi": 2870,
      "**": 2871,
      "Ġtá»Ļc": 2872,
      "âĢŀ": 2873,
      "Ġhá»ĵng": 2874,
      "Tá»«": 2875,
      "ĠGiÃ¡o": 2876,
      "ip": 2877,
      "Ġthá»ĭt": 2878,
      "ĠBÃ": 2879,
      "Ġtrao": 2880,
      "2012": 2881,
      "ÂµÃĺ": 2882,
      "top": 2883,
      "ĠâĢ¢": 2884,
      "ĠXem": 2885,
      "ĠyÃªn": 2886,
      "ĠvÃ©": 2887,
      "á»ĳt": 2888,
      "IN": 2889,
      "ĠCao": 2890,
      "deo": 2891,
      "iá»ĩng": 2892,
      "vay": 2893,
      "ĠÄĲá»ĥ": 2894,
      "ok": 2895,
      "Ġtáº§m": 2896,
      "Ġháº¡ng": 2897,
      "ĠHai": 2898,
      "ï¿½ï¿½ï¿½ï¿½ï¿½ï¿½ï¿½ï¿½": 2899,
      "Â·Â¨": 2900,
      "Khi": 2901,
      "ĠUBND": 2902,
      "Ġtáº¥": 2903,
      "Ġfor": 2904,
      "hÆ°á»Ľc": 2905,
      "end": 2906,
      "ĳÃŃch": 2907,
      "ÄĳÃŃch": 2908,
      "Ġcan": 2909,
      "ĠÄĲÆ°á»Ŀng": 2910,
      "thÆ°á»Ľc": 2911,
      "ĠTrá»": 2912,
      "ĠcÃ¡nh": 2913,
      "ĠÄĳÃŃch": 2914,
      "ĠthÆ°á»Ľc": 2915,
      "à³Ĩ": 2916,
      "(\"": 2917,
      "ĵi": 2918,
      "html": 2919,
      "Ġz": 2920,
      "hat": 2921,
      "hop": 2922,
      "ĠhoÃ": 2923,
      "ĠNáºµng": 2924,
      "Ġsáº¯p": 2925,
      "65": 2926,
      "Ġcoi": 2927,
      "87": 2928,
      "á»Ļc": 2929,
      "ĠBÃ¡o": 2930,
      "ĠbÃŃ": 2931,
      "ĠLÃ¢m": 2932,
      "à¼ĭ": 2933,
      "eng": 2934,
      "Ġbá»©c": 2935,
      "BÃłi": 2936,
      "Ġbi": 2937,
      "Ġï": 2938,
      "ebook": 2939,
      "ĠTÃłi": 2940,
      "Æł": 2941,
      "ÃĥÃĢ": 2942,
      "hÃ©p": 2943,
      "43": 2944,
      "åĪ": 2945,
      "Ġmiá»ĩng": 2946,
      "ĠnghiÃªm": 2947,
      "Ġvay": 2948,
      "ĠGI": 2949,
      "âĦ¢": 2950,
      "Ġláº¯p": 2951,
      "Ġbáº§u": 2952,
      "ĠLÃ½": 2953,
      "Ġdá»¯": 2954,
      "Ġkáº»": 2955,
      "uá»Ļt": 2956,
      "ngÆ°Æ¡i": 2957,
      "unction": 2958,
      "ĠtrÃºc": 2959,
      "è¿": 2960,
      "ÅĴ": 2961,
      "Ġcá»Ń": 2962,
      "ÃıÃĸ": 2963,
      "ĠngÆ°Æ¡i": 2964,
      "ÃĹÃ·": 2965,
      "Ġchiáº¿u": 2966,
      "ĠsÃ´ng": 2967,
      "tam": 2968,
      "ĠkÃª": 2969,
      "Ġkiá»ĩm": 2970,
      "âĢ¡": 2971,
      "Ġu": 2972,
      "ÂºÃ³": 2973,
      "ÃİÃĴ": 2974,
      "var": 2975,
      "pr": 2976,
      "hÆ°á»£ng": 2977,
      "ĠÃ£": 2978,
      "gu": 2979,
      "ÃĶNG": 2980,
      "gáº¯n": 2981,
      "Ġháº¡t": 2982,
      "Åĵ": 2983,
      "Ġmá»ĳi": 2984,
      "][": 2985,
      "ĠsoÃ¡t": 2986,
      "Ġkhá»ĳi": 2987,
      "ĠLi": 2988,
      "ĠkhÃ´": 2989,
      "ĠÃ¢": 2990,
      "ngáº¯n": 2991,
      "å°": 2992,
      "Ġháº¡nh": 2993,
      "âĢĭ": 2994,
      "ĠPhá»": 2995,
      "ry": 2996,
      "uá»Ļn": 2997,
      "Ġngáº¯n": 2998,
      "arat": 2999,
      "our": 3000,
      "Ġbá»ģn": 3001,
      "ĠLa": 3002,
      "ÃĭÃ»": 3003,
      "ĠdÆ°Æ¡ng": 3004,
      "æĺ": 3005,
      "Ġ05": 3006,
      "háº»": 3007,
      "ĠAr": 3008,
      "gle": 3009,
      "Ġsuá»ĳt": 3010,
      "ÞĮ": 3011,
      "Ġ!": 3012,
      "ĠmÃ¡t": 3013,
      "500": 3014,
      "ĠÄĲáº§u": 3015,
      "Ġ40": 3016,
      "NgÆ°á»Ŀi": 3017,
      "ChÆ°Æ¡ng": 3018,
      "Ã²i": 3019,
      "ĠlÆ°Æ¡ng": 3020,
      "gÅ©": 3021,
      "ÃįÃ¸": 3022,
      "háº§y": 3023,
      "ĠgÃ³i": 3024,
      "Ġtáº¯c": 3025,
      "100": 3026,
      "ĠPhÃ³": 3027,
      "ĠâĢĺ": 3028,
      "ÃĵÃĥ": 3029,
      "\",\"": 3030,
      "ĠNÄĥm": 3031,
      "Ġkhuyáº¿n": 3032,
      "acebook": 3033,
      "Ä©a": 3034,
      "Ġmáº¡ch": 3035,
      "ĠbiÃªn": 3036,
      "âĢł": 3037,
      "ĠTáº¡i": 3038,
      "ÃĳÃ": 3039,
      "Ð¾": 3040,
      "Ġtá»§": 3041,
      "67": 3042,
      "ĠpháºŃn": 3043,
      "42": 3044,
      "ĠbÃły": 3045,
      "ĠÄĲáº·t": 3046,
      "ĠgiÃ³": 3047,
      "UY": 3048,
      "Ġdáº§n": 3049,
      "ĠThá»Ŀi": 3050,
      "ĠnhiÃªu": 3051,
      "Æ°á»£u": 3052,
      "ĠÄĳoÃ¡n": 3053,
      "Ġtrá»ĵng": 3054,
      "ĠquÃł": 3055,
      "ĠAM": 3056,
      "tuyÃªn": 3057,
      "tháº»": 3058,
      "ngÅ©": 3059,
      "ĠÃĤu": 3060,
      "Ġáº¢n": 3061,
      "ina": 3062,
      "Ġwebsite": 3063,
      "ĠÄĳáº¥y": 3064,
      "ĠCo": 3065,
      "Ġáº¢nh": 3066,
      "ÃĴÂµ": 3067,
      "Ġ02": 3068,
      "ĠÄĳá»«ng": 3069,
      "ĠtuyÃªn": 3070,
      "º¬": 3071,
      "ĠngÅ©": 3072,
      "cn": 3073,
      "ĠSá»ĳ": 3074,
      "tháº§y": 3075,
      "ÄĲá»": 3076,
      "Ġgháº¿": 3077,
      "Ġtháº»": 3078,
      "áº¬": 3079,
      "ĠPháº¡m": 3080,
      "Ġrá»Ńa": 3081,
      "Ġ2014": 3082,
      "accarat": 3083,
      "ĠkÃ¨m": 3084,
      "ĠCÃ´": 3085,
      "Ġchá»£": 3086,
      "ank": 3087,
      "85": 3088,
      "Ġá»§y": 3089,
      "nÃ©t": 3090,
      "ĠmÆ°a": 3091,
      "mm": 3092,
      "æĹ": 3093,
      "ĠnÃ©t": 3094,
      "ĠAl": 3095,
      "ĠhoÃłng": 3096,
      "tÃ¡i": 3097,
      "ĠsÃłn": 3098,
      "Ġat": 3099,
      "ĠCÃ": 3100,
      "ĠÃĲ": 3101,
      "Ġtháº§y": 3102,
      "ÃıÃĤ": 3103,
      "ĠÄĲiá»ĩn": 3104,
      "ĠDi": 3105,
      "ich": 3106,
      "ck": 3107,
      "av": 3108,
      "Ġchuyáº¿n": 3109,
      "ĠÄĳáº³ng": 3110,
      "ÃĬÃĲ": 3111,
      "ino": 3112,
      "ĠHÃ£y": 3113,
      "ninh": 3114,
      "Ð°": 3115,
      "ĠKhu": 3116,
      "âĢ°": 3117,
      "Ġsu": 3118,
      "ill": 3119,
      "Ġvá»Ŀi": 3120,
      "ç½": 3121,
      "TV": 3122,
      "Ġxáº¥u": 3123,
      "ĠtÃ¡i": 3124,
      "åĽ": 3125,
      "ation": 3126,
      "ĠHá»įc": 3127,
      "à²²": 3128,
      "ĠrÃłng": 3129,
      "ÃķÃŁ": 3130,
      "ÃĦÃľ": 3131,
      "ĠtÃ¹y": 3132,
      "ĠkÃ©m": 3133,
      "Phone": 3134,
      "tÃºi": 3135,
      "NhÆ°": 3136,
      "Ġthá»¥": 3137,
      "Ġby": 3138,
      "ama": 3139,
      "ft": 3140,
      "her": 3141,
      "âĢ¹": 3142,
      "ĠcÃł": 3143,
      "Ġhá»įa": 3144,
      "ĠTáºŃp": 3145,
      "ĠBÃłi": 3146,
      "vu": 3147,
      "tÃ´n": 3148,
      "ĠbÃło": 3149,
      "Ġ2013": 3150,
      "ĠMai": 3151,
      "á»Ļp": 3152,
      "ĠmÅ©i": 3153,
      "ĠÄĲÄĥng": 3154,
      "ĠgÃ": 3155,
      "ĠLuáºŃt": 3156,
      "Ġchá»¥p": 3157,
      "vÅ©": 3158,
      "º¦": 3159,
      "ÃĥÃ±": 3160,
      "ee": 3161,
      "70": 3162,
      "Ġbaccarat": 3163,
      "ĠtÃºi": 3164,
      "Ġlá»Ńa": 3165,
      "ion": 3166,
      "Ãµi": 3167,
      "Ġvá»¯ng": 3168,
      "Ġxung": 3169,
      "tal": 3170,
      "ĠâĢ¦âĢ¦âĢ¦âĢ¦âĢ¦": 3171,
      "ĠCÃ¡ch": 3172,
      "Ġtá»ī": 3173,
      "Ġninh": 3174,
      "Ġsa": 3175,
      "náº¯m": 3176,
      "Ġkhá»ķ": 3177,
      "Há»": 3178,
      "Ġhuyáº¿t": 3179,
      "ĠtÃ´n": 3180,
      "Ġgáº¯n": 3181,
      "Ġtri": 3182,
      "Ġ<": 3183,
      "Ġthá»«a": 3184,
      "Ġde": 3185,
      "Ġphiáº¿u": 3186,
      "ĠlÃ´": 3187,
      "Ðµ": 3188,
      "Ġnáº¯m": 3189,
      "ĠHu": 3190,
      "áº½": 3191,
      "tÆ°á»Ŀng": 3192,
      "90": 3193,
      "Ġáº¥m": 3194,
      "huyáº¿t": 3195,
      "Ġlá»įc": 3196,
      "ĠgÃł": 3197,
      "ĠvÅ©": 3198,
      "ĠQuÃ½": 3199,
      "arc": 3200,
      "ĠNha": 3201,
      "Â±Â¨": 3202,
      "ä¸Ģ": 3203,
      "Ġcuá»ĳn": 3204,
      "ĠtÆ°á»Ŀng": 3205,
      "ĠÄĲÃ¬nh": 3206,
      "áº«u": 3207,
      "Ã©p": 3208,
      "ĠSim": 3209,
      "Ġtáº¥m": 3210,
      "Ġdá»±a": 3211,
      "thuyáº¿t": 3212,
      "Ġcom": 3213,
      "ĠcÆ°á»Ľi": 3214,
      "ĳÃ¡o": 3215,
      "ÄĳÃ¡o": 3216,
      "Ġç": 3217,
      "ĠYÃªn": 3218,
      "ĠÃ¯": 3219,
      "ke": 3220,
      "náº¯ng": 3221,
      "ĠÄĳÃ¡o": 3222,
      "ell": 3223,
      "Ġè": 3224,
      "ĠsÃ³ng": 3225,
      "de": 3226,
      "ĠBÃł": 3227,
      "MÃ¡y": 3228,
      "ĠchÃ¡y": 3229,
      "thang": 3230,
      "ĠSÃłi": 3231,
      "Ġnáº¯ng": 3232,
      "Cho": 3233,
      "ĠThÆ°Æ¡ng": 3234,
      "Ġxinh": 3235,
      "ontent": 3236,
      "ĠÄĳá»ķ": 3237,
      "å¹": 3238,
      "nÃºi": 3239,
      "ðŁ": 3240,
      "ÃĵÃļ": 3241,
      "Ġláº¯ng": 3242,
      "ĠmÃª": 3243,
      "ĠBÃ¡n": 3244,
      "ON": 3245,
      "Ġthuyáº¿t": 3246,
      "ix": 3247,
      "Ġ06": 3248,
      "Ġáº©m": 3249,
      "ĠlÆ°á»£c": 3250,
      "äºº": 3251,
      "ĠTá»Ń": 3252,
      "Chi": 3253,
      "Ġhá»įp": 3254,
      "à²¨": 3255,
      "Ġtáº¯m": 3256,
      "Ġgáº¥p": 3257,
      "ss": 3258,
      "2011": 3259,
      "ĠTiá»ģn": 3260,
      "ĠPhÃ¡t": 3261,
      "Ã³t": 3262,
      "ĠnÃºi": 3263,
      "Má»": 3264,
      "ĠchÃ¡u": 3265,
      "ĠrÆ°á»£u": 3266,
      "be": 3267,
      "ĠthoÃ¡t": 3268,
      "á»Ĳ": 3269,
      "Ġgiáº£ng": 3270,
      "Ġchiáº¿m": 3271,
      "Ġmá»Ļ": 3272,
      "96": 3273,
      "84": 3274,
      "ĠÄĳá»Ļt": 3275,
      "ĠThiáº¿t": 3276,
      "Ġbuá»Ļc": 3277,
      "ĠSáº£n": 3278,
      "CÃ¡ch": 3279,
      "Ġli": 3280,
      "Ġcá»©ng": 3281,
      "ams": 3282,
      "hÃ¡nh": 3283,
      "ÃĢÃŃ": 3284,
      "ĠMua": 3285,
      "Ġ04": 3286,
      "Ġsá»ķ": 3287,
      "Þģ": 3288,
      "tÃ²a": 3289,
      "thÃŃ": 3290,
      "van": 3291,
      "Ġká»ĭ": 3292,
      "').": 3293,
      "ĠdÃµi": 3294,
      "Ngo": 3295,
      "hÃ¡c": 3296,
      "53": 3297,
      "Ġvideo": 3298,
      "ãĢģ": 3299,
      "Ġhy": 3300,
      "ER": 3301,
      "ĠÃł": 3302,
      "him": 3303,
      "ĠHÆ°ng": 3304,
      "Ġbiá»ĩn": 3305,
      "ĠMa": 3306,
      "ĠtÃ²a": 3307,
      "ÞĲ": 3308,
      "II": 3309,
      "):": 3310,
      "ĠHD": 3311,
      "åį": 3312,
      "ĠrÃºt": 3313,
      "Ġsong": 3314,
      "ĠÆ°á»Ľc": 3315,
      "ĠgÃ³c": 3316,
      "Ġniá»ģm": 3317,
      "?âĢĿ": 3318,
      "Þį": 3319,
      "jp": 3320,
      "ge": 3321,
      "ĠthÃŃ": 3322,
      "ĠtrÃ¹ng": 3323,
      "Ġquá»": 3324,
      "ĠGÃ²n": 3325,
      "há»±a": 3326,
      "ÃĬÃĤ": 3327,
      "Â±Â»": 3328,
      "nhá»±a": 3329,
      "hÃ´n": 3330,
      "ĠTiÃªn": 3331,
      "ĠTÃ¢m": 3332,
      "ĠsÆ¡n": 3333,
      "ĠkÃ¬": 3334,
      "Ġre": 3335,
      "Ġtruyá»ĩn": 3336,
      "ï¿½ï¿½ï¿½ï¿½ï¿½": 3337,
      "Ġno": 3338,
      "Ġpro": 3339,
      "ĠDá»±": 3340,
      "ĠlÃ¡i": 3341,
      "ĠhoÃ¡": 3342,
      "ĠcáºŃn": 3343,
      "Ho": 3344,
      "Ġnhá»±a": 3345,
      "52": 3346,
      "tha": 3347,
      "nháº¯c": 3348,
      "ĳÃª": 3349,
      "Ġtá»ĵn": 3350,
      "ÄĳÃª": 3351,
      "Ġthoáº£i": 3352,
      "Ġnháº¯c": 3353,
      "ĠlÃłnh": 3354,
      "Ã©n": 3355,
      "so": 3356,
      "ĠlÃłng": 3357,
      "97": 3358,
      "įa": 3359,
      "ĠphÃ³ng": 3360,
      "app": 3361,
      "ĠdÃły": 3362,
      "ĠTá»ķ": 3363,
      "æī": 3364,
      "ĠCá»": 3365,
      "há»±": 3366,
      "thÃ´n": 3367,
      "ÄĲT": 3368,
      "ĠbÃ¢y": 3369,
      "41": 3370,
      "ĠVÃ¢n": 3371,
      "ÃĶn": 3372,
      "Ġthang": 3373,
      "ĠQU": 3374,
      "Ġis": 3375,
      "ÃĥÃĩ": 3376,
      "Ġ60": 3377,
      "Ġhi": 3378,
      "eu": 3379,
      "ĠrÆ¡i": 3380,
      "ĠtháºŃn": 3381,
      "Ġháº§u": 3382,
      "Å¸": 3383,
      "ĠchÃłng": 3384,
      "ĠCÆ¡": 3385,
      "Ġá»ĳng": 3386,
      "ĠÄĳÃª": 3387,
      "ĠthÃ´n": 3388,
      "ĠViá»ĩc": 3389,
      "thá»±": 3390,
      "ĠlÃ£o": 3391,
      "Ġ2012": 3392,
      "Ġthá»±": 3393,
      "Ġlan": 3394,
      "Ġká»ĭp": 3395,
      "à²¤": 3396,
      "ĠlÆ°ng": 3397,
      "thÃ¡c": 3398,
      "Ġrá»«ng": 3399,
      "In": 3400,
      "ĠTáº¿t": 3401,
      "ĠSa": 3402,
      "ĠthÃ¡c": 3403,
      "ĠÄĳá»¡": 3404,
      "NhÃ": 3405,
      "ÃĬÂµ": 3406,
      "ĠXe": 3407,
      "NhÃł": 3408,
      "ĠtháºŃm": 3409,
      "Thá»": 3410,
      "ThÃ´ng": 3411,
      "Ġbuá»ĵn": 3412,
      "ĠHÃłng": 3413,
      "Ġmá»«ng": 3414,
      "200": 3415,
      "Ġkháº³ng": 3416,
      "bo": 3417,
      "îĢ": 3418,
      "ton": 3419,
      "ĠquÃªn": 3420,
      "ĠgiÃłu": 3421,
      "ĠÄĳÃ¡m": 3422,
      "ĠSá»±": 3423,
      "uong": 3424,
      "áº«n": 3425,
      "',": 3426,
      "Ġrau": 3427,
      "Ġhá»Ļp": 3428,
      "Ġche": 3429,
      "ID": 3430,
      "nload": 3431,
      "háº¥n": 3432,
      "chi": 3433,
      "ĠLÃłm": 3434,
      "ĠmÃ¹i": 3435,
      "ĠCom": 3436,
      "ĠThá»©": 3437,
      "con": 3438,
      "ans": 3439,
      "Bá»Ļ": 3440,
      "uá»ĵng": 3441,
      "Ġphá»": 3442,
      "ĠtrÄĥm": 3443,
      "98": 3444,
      "ĠÄĳá»©c": 3445,
      "ĠDá»ĭch": 3446,
      "viá»ĩt": 3447,
      "ĠGiÃ¡m": 3448,
      "indow": 3449,
      "ÃĶng": 3450,
      "jpg": 3451,
      "ÃĮÃ¢": 3452,
      "ĠHiá»ĩn": 3453,
      "Ġpháº¡t": 3454,
      "ĠÄĲá": 3455,
      "Ġmá»Ŀi": 3456,
      "Ġif": 3457,
      "888": 3458,
      "ĠVÆ°Æ¡ng": 3459,
      "Ġ31": 3460,
      "nháº¥n": 3461,
      "vo": 3462,
      "ĠiPhone": 3463,
      "64": 3464,
      "Ġung": 3465,
      "ĠOn": 3466,
      "Ġtá»Ŀ": 3467,
      "nhá»ĭ": 3468,
      "Ng": 3469,
      "Ġbinh": 3470,
      "ç½ĳ": 3471,
      "AT": 3472,
      "ĠÄĳá»©a": 3473,
      "ext": 3474,
      "ST": 3475,
      ",\"": 3476,
      "Ġ199": 3477,
      "ternet": 3478,
      "vs": 3479,
      "ÃĬN": 3480,
      "ĳiá»ĥn": 3481,
      "Äĳiá»ĥn": 3482,
      "ice": 3483,
      "Ġviá»ĩt": 3484,
      "Ġcá»¥c": 3485,
      "ĠPro": 3486,
      "Ġtha": 3487,
      "Ġnháº¥n": 3488,
      "Ġmáº½": 3489,
      "Ġcháº·t": 3490,
      "ĠÄĳiá»ĥn": 3491,
      "Ġná»£": 3492,
      "Ġ*": 3493,
      "Ġtá»¥": 3494,
      "ÞĢ": 3495,
      "Ġmá»¥n": 3496,
      "Ãºy": 3497,
      "Ġbá»Ļt": 3498,
      "ĠbáºŃ": 3499,
      "Ġé": 3500,
      "Ġtá»ı": 3501,
      ">>": 3502,
      "--------": 3503,
      "Ġxá»©": 3504,
      "Ġá»ŀ": 3505,
      "á»ĳn": 3506,
      "ĠÄĳá»£i": 3507,
      "á»§n": 3508,
      "ĳÆ°Æ¡ng": 3509,
      "ÄĳÆ°Æ¡ng": 3510,
      "Ġliá»ĩt": 3511,
      "Ġnhá»ĭ": 3512,
      "ian": 3513,
      "Ġháº£o": 3514,
      "Â¶Â¨": 3515,
      "ĠlÃ´ng": 3516,
      "Ġbe": 3517,
      "ÂµÃĢ": 3518,
      "çº¿": 3519,
      "ĠHÆ°Æ¡ng": 3520,
      "ĠhÃ¨": 3521,
      "sc": 3522,
      "ĠÄĳÃ£i": 3523,
      "Ġse": 3524,
      "á»§ng": 3525,
      "Ġna": 3526,
      "Þĭ": 3527,
      "Táº¡i": 3528,
      "náº¥u": 3529,
      "Tag": 3530,
      "ngu": 3531,
      "Ġloáº¡t": 3532,
      "Ġbá»¥ng": 3533,
      "su": 3534,
      "gang": 3535,
      "ĠdÆ": 3536,
      "ĠÄĳÆ°Æ¡ng": 3537,
      "táº¡m": 3538,
      "Ġtrá»¥": 3539,
      "ĠNá»¯": 3540,
      "lip": 3541,
      "do": 3542,
      "Ġkem": 3543,
      "ĠSinh": 3544,
      "Ġ500": 3545,
      "à²Ĺ": 3546,
      "><": 3547,
      "Ġnáº¥u": 3548,
      "ĠphÆ°á»Ŀng": 3549,
      "á»©t": 3550,
      "Anh": 3551,
      "ĠsÃłng": 3552,
      "háº£i": 3553,
      "Â¶Â¯": 3554,
      "ĠÄĲoÃłn": 3555,
      "Ġgáº¯ng": 3556,
      "ĠdÆ°": 3557,
      "ĠCáº§n": 3558,
      "guyá»ĩn": 3559,
      "Ġbá»įn": 3560,
      "nguyá»ĩn": 3561,
      "ĠQuÃ¢n": 3562,
      "ĠkhÃ¡ng": 3563,
      "Tá»ķng": 3564,
      "uyen": 3565,
      "áº¥c": 3566,
      "Ġquang": 3567,
      "Ġháº£i": 3568,
      "();": 3569,
      "ĠBá»": 3570,
      "Ġ200": 3571,
      "ÃĮÃ¬": 3572,
      "cc": 3573,
      "Ġvu": 3574,
      "Ġdá»ĭp": 3575,
      "³nh": 3576,
      "Ġnguyá»ĩn": 3577,
      "NgoÃłi": 3578,
      "ĠKhoa": 3579,
      "Åł": 3580,
      "ĠÄĲáº·c": 3581,
      "199": 3582,
      ".\"": 3583,
      "gÃ´n": 3584,
      "ÃĮÃ¥": 3585,
      "º·p": 3586,
      "ĠVin": 3587,
      "==": 3588,
      "gÆ°á»£c": 3589,
      "ngÆ°á»£c": 3590,
      "ngÃ´n": 3591,
      "ÂºÃı": 3592,
      "Ëľ": 3593,
      "Æ¡m": 3594,
      "ngang": 3595,
      "Ġgá»įn": 3596,
      "çī": 3597,
      "phone": 3598,
      "ĠHy": 3599,
      "ĠngÆ°á»£c": 3600,
      "Tuy": 3601,
      "hÃª": 3602,
      "cho": 3603,
      "EN": 3604,
      "åĬ": 3605,
      "tháº£i": 3606,
      "ĠNgÃ¢n": 3607,
      "ĠGiáº£i": 3608,
      "ide": 3609,
      "Ġtáº¡m": 3610,
      "\").": 3611,
      "cl": 3612,
      "vÆ°á»Ŀn": 3613,
      "ĠÆ°Æ¡ng": 3614,
      "ĠTiá»ĥu": 3615,
      "Ġtháº£i": 3616,
      "uá»³nh": 3617,
      "ĠtrÃ": 3618,
      "ĠcháºŃm": 3619,
      "Ġsáº¯t": 3620,
      "gáº¡i": 3621,
      "ngáº¡i": 3622,
      "Ġngang": 3623,
      "ven": 3624,
      "ĠkhuÃ´n": 3625,
      "ĠngÃ´n": 3626,
      "ĠÃļ": 3627,
      "æĿ": 3628,
      "ĠÃ¡": 3629,
      "ĠMar": 3630,
      "ÃĭÂµ": 3631,
      "ĠVinh": 3632,
      "ĠÂ·": 3633,
      "ÃĶÂº": 3634,
      "ĠÄĲÃ³": 3635,
      "Ġtrá»«": 3636,
      "Ð¸": 3637,
      "Ġngáº¡i": 3638,
      "ĠvÆ°á»Ŀn": 3639,
      "ná»Ńa": 3640,
      "Ġlá»ĩnh": 3641,
      "ini": 3642,
      "ĠPhan": 3643,
      "Ġhá»ģ": 3644,
      "ĠbáºŃc": 3645,
      "oogle": 3646,
      "Ġmai": 3647,
      "ĠNghá»ĭ": 3648,
      "ĠkhÃºc": 3649,
      "váº¿t": 3650,
      "ĠvÃŃ": 3651,
      "ĠtrÆ°ng": 3652,
      "Ġcáº·p": 3653,
      "ĠTÃ¬nh": 3654,
      "háºŃn": 3655,
      "ÃķÃ¾": 3656,
      "Ġkhiá»ĥn": 3657,
      "ĠThá»§y": 3658,
      "ĠÄĲá»ĭnh": 3659,
      "Ġmáº¯n": 3660,
      "51": 3661,
      "táº¡p": 3662,
      "Ġdinh": 3663,
      "ĠÄĲá»Ļ": 3664,
      "ĠBá»ĩnh": 3665,
      "ky": 3666,
      "LV": 3667,
      "Ġná»Ńa": 3668,
      "Ġváº¿t": 3669,
      "Ġbá»¯a": 3670,
      "Ġá»¦": 3671,
      "táº£": 3672,
      "ĠHCM": 3673,
      "io": 3674,
      "Ġtáº¡p": 3675,
      "ĠCÃ²n": 3676,
      "lot": 3677,
      "82": 3678,
      "ĠcÆ¡m": 3679,
      "ĠMan": 3680,
      "ĠnghÃ¨o": 3681,
      "Ġtáº£": 3682,
      "ĠHÃ³a": 3683,
      "ĠhÃ´": 3684,
      "ma": 3685,
      "ĠbÃ¨": 3686,
      "83": 3687,
      "ĠcÃłi": 3688,
      "Ġsá»©": 3689,
      "Ġháº³n": 3690,
      "Ġáº¡": 3691,
      "Ġdá»«ng": 3692,
      "ĠÄĳáº£n": 3693,
      "ĠquÃª": 3694,
      "Ġmi": 3695,
      "à²Ĥ": 3696,
      "ĠPhÃºc": 3697,
      "ace": 3698,
      "Ġkháº¯p": 3699,
      "kg": 3700,
      "á»ĥu": 3701,
      "tá»ĩ": 3702,
      "Hiá»ĩn": 3703,
      "Vi": 3704,
      "Ġbu": 3705,
      "ĠQuy": 3706,
      "ĠxÆ°Æ¡ng": 3707,
      "ä¼": 3708,
      "á»©a": 3709,
      "ĠCÃ¡": 3710,
      "amsung": 3711,
      "ays": 3712,
      "fe": 3713,
      "Ġam": 3714,
      "å½": 3715,
      "à²ķ": 3716,
      "Ġtá»ĩ": 3717,
      "ÃĵÃİ": 3718,
      "ÃħÃĨ": 3719,
      "ÃĮÃĺ": 3720,
      "æĺ¯": 3721,
      "Ġkhung": 3722,
      "ĠBÃªn": 3723,
      "Ġáº¤": 3724,
      "Ġrá»Ŀi": 3725,
      "ĠphÃº": 3726,
      "ĠPl": 3727,
      "hÃłng": 3728,
      "ect": 3729,
      "ĠTháº§n": 3730,
      "»Ľt": 3731,
      "ĠÞī": 3732,
      "obile": 3733,
      "ĠbÄĥng": 3734,
      "Ġkhá»§ng": 3735,
      "ĠCity": 3736,
      "mart": 3737,
      "non": 3738,
      "hÃ¢": 3739,
      "ĠNháº¥t": 3740,
      "ĠKhÃ¡nh": 3741,
      "ĳÃ²i": 3742,
      "ÄĳÃ²i": 3743,
      "ĠGame": 3744,
      "ĠVÄ©nh": 3745,
      "Ġvar": 3746,
      "thÆ°á»£ng": 3747,
      "ÃĵÃ«": 3748,
      "Ġì": 3749,
      ",âĢ¦": 3750,
      "ĠÄĲá»ĳi": 3751,
      "ĠSp": 3752,
      "âĢº": 3753,
      "me": 3754,
      "Ġloáº¡n": 3755,
      "ÙĬ": 3756,
      "Ġláº«n": 3757,
      "ĠÄĳÃ²i": 3758,
      "ĠHÃ¬nh": 3759,
      "ĠVáºŃy": 3760,
      "åľ¨çº¿": 3761,
      "Ġthá»Ŀ": 3762,
      "Ġtrá»©ng": 3763,
      "ĠBl": 3764,
      "Ġvs": 3765,
      "ÃĥÃ¦": 3766,
      "Ġal": 3767,
      "ĠÄĳá»ĩ": 3768,
      "Ġcamera": 3769,
      "Ġcháº£y": 3770,
      "TS": 3771,
      "ÃĥÃħ": 3772,
      "ï»": 3773,
      "ĠchÃło": 3774,
      "https": 3775,
      "AR": 3776,
      "xi": 3777,
      "Ġá»¦y": 3778,
      "Ùĩ": 3779,
      "ĠDÃ¢n": 3780,
      "ĠPr": 3781,
      "ĠNghá»ĩ": 3782,
      "ĀĀĀĀĀĀĀĀĀĀĀĀĀĀĀĀĀĀĀĀĀĀĀĀĀĀĀĀĀĀĀĀĀĀĀĀĀĀĀĀĀĀĀĀĀĀĀĀĀĀĀĀĀĀĀĀĀĀĀĀĀĀĀĀ": 3783,
      "NHH": 3784,
      "ÃĨÃ¤": 3785,
      "Ġthá»ıa": 3786,
      "Ġ36": 3787,
      "ÑĤ": 3788,
      "Ġmá»ĩnh": 3789,
      "url": 3790,
      "Ġthá»Ł": 3791,
      "ĠNÃ³": 3792,
      "aptop": 3793,
      "ĠVI": 3794,
      "ĠgÆ°Æ¡ng": 3795,
      "Em": 3796,
      "ĠCá»Ļng": 3797,
      "ĠPháº§n": 3798,
      "Ġï¿½": 3799,
      "ÂµÃĪ": 3800,
      "å¥": 3801,
      "Â£Â©": 3802,
      "ÃĸÃĨ": 3803,
      "ĠHáº¡": 3804,
      "âĤ¬ï¿½": 3805,
      "ĠTNHH": 3806,
      "hen": 3807,
      "Ġhá»ĵn": 3808,
      "åŃ": 3809,
      "Ġngá»įt": 3810,
      "ĠCan": 3811,
      "ĠTuáº¥n": 3812,
      "ĠÃĿ": 3813,
      "roid": 3814,
      "Å¡": 3815,
      "ĠthoÃ¡ng": 3816,
      "\":\"": 3817,
      "Â£Â¨": 3818,
      "ĠÃŃ": 3819,
      "ÄĲÃ¢y": 3820,
      "000000": 3821,
      "Ġtan": 3822,
      "Tin": 3823,
      "ey": 3824,
      "ĠCá»ķ": 3825,
      "ĠÄĳáº£ng": 3826,
      "ĠthÆ°á»£ng": 3827,
      "ĠCa": 3828,
      "Ġrá»ĳi": 3829,
      "ĠÃ§": 3830,
      "Ġbáº¡i": 3831,
      "ĠLÃ": 3832,
      "ĠxÆ°a": 3833,
      "MÃ£": 3834,
      "£t": 3835,
      "gá»±c": 3836,
      "ĠÃª": 3837,
      "ngá»±c": 3838,
      "74": 3839,
      "TrÆ°á»Ľc": 3840,
      "ĠThá»±c": 3841,
      "ĠTiáº¿n": 3842,
      "Ġáº©n": 3843,
      "ĠtrÃł": 3844,
      "OS": 3845,
      "Ġro": 3846,
      "uk": 3847,
      "ĠAnd": 3848,
      "ĠKáº¿t": 3849,
      "gÃłn": 3850,
      "Ġná»Ĺi": 3851,
      "ChÃºng": 3852,
      "ĠBÃŃ": 3853,
      "ĠMáº·t": 3854,
      "Ġngá»±c": 3855,
      "ĠKhÃ¡ch": 3856,
      "ngÃłn": 3857,
      "ĠhÃłm": 3858,
      "tÃ´ng": 3859,
      "»Ľp": 3860,
      "Ġngá»«ng": 3861,
      "Ġlá»¥c": 3862,
      "ÃĮÃ": 3863,
      "áºłI": 3864,
      "Ġ2011": 3865,
      "Ã©o": 3866,
      "____": 3867,
      "view": 3868,
      "than": 3869,
      "Ġ016": 3870,
      "mp": 3871,
      "Ð½": 3872,
      "ĠÃ©p": 3873,
      "ĠgiÃłnh": 3874,
      "hÃ¹": 3875,
      "Ġlá»ĳi": 3876,
      "Ġ$('": 3877,
      "ei": 3878,
      "ĠgiÆ°á»Ŀng": 3879,
      "Â¡Â¶": 3880,
      "Ġtráº§n": 3881,
      "à²¯": 3882,
      "ĠgiÃł": 3883,
      "ines": 3884,
      "ĠngÃłn": 3885,
      "Ġthua": 3886,
      "ĠHá»į": 3887,
      "ĠThÃ¡nh": 3888,
      "ĠcÄĥng": 3889,
      "ÃĮÃ¡": 3890,
      "Ġláº»": 3891,
      "á»¥n": 3892,
      "Ġki": 3893,
      "ĠthÆ¡m": 3894,
      "ran": 3895,
      "ï¿½ï¿½ï¿½ï¿½ï¿½ï¿½": 3896,
      "ĠTPHCM": 3897,
      "ĠÃĺ": 3898,
      "ĠmÃ£n": 3899,
      "ĳÃłi": 3900,
      "ÄĳÃłi": 3901,
      "Ġ300": 3902,
      "72": 3903,
      "Ġlá»Ĺ": 3904,
      "tÄ©nh": 3905,
      "ĠTa": 3906,
      "hÆ¡i": 3907,
      "Ġnon": 3908,
      "ĠmÃły": 3909,
      "ä¸į": 3910,
      "ĠÄĳÃłi": 3911,
      "ĠHiá»ĩp": 3912,
      "US": 3913,
      "ĠViá»ĩn": 3914,
      "ĠCam": 3915,
      "ÃİÃĬ": 3916,
      "ĠlÃ£i": 3917,
      "ist": 3918,
      "ĠHÃ¹ng": 3919,
      "ĠtÄ©nh": 3920,
      "ba": 3921,
      "ĠÞĨ": 3922,
      "à²µ": 3923,
      "CN": 3924,
      "ĠÄĲa": 3925,
      "ĠBiÃªn": 3926,
      "ĠDa": 3927,
      "COM": 3928,
      "ith": 3929,
      "ÃĩÃ¸": 3930,
      "hÆ¡": 3931,
      "Ĺn": 3932,
      "73": 3933,
      "Ġphu": 3934,
      "ĠHuy": 3935,
      "old": 3936,
      "ĳua": 3937,
      "Äĳua": 3938,
      "£¿": 3939,
      "ĠhÃło": 3940,
      "ĠNo": 3941,
      "ĠhÆ": 3942,
      "95": 3943,
      "ĠÄĲÃło": 3944,
      "ÄĲiá»ģu": 3945,
      "ĠMy": 3946,
      "ĠdÆ°á»£c": 3947,
      "ĠtÃ´ng": 3948,
      "2010": 3949,
      "ĠNew": 3950,
      "Ġ35": 3951,
      "ĠÄĳua": 3952,
      "Ġ$(": 3953,
      "ĠÄĲá»ĭa": 3954,
      "ĠkÃªu": 3955,
      "Chá»§": 3956,
      "ĠTHá»": 3957,
      "ç»": 3958,
      "Ġdao": 3959,
      "Ġchá»Ł": 3960,
      "Ġ80": 3961,
      "Ġviet": 3962,
      "Ġslot": 3963,
      "Â»Â¯": 3964,
      "Ġtrá»¯": 3965,
      "Ñģ": 3966,
      "tÃ¢n": 3967,
      "ash": 3968,
      "ĠNghi": 3969,
      "ll": 3970,
      "Ġcá»§": 3971,
      "thÃ©p": 3972,
      "Ġgan": 3973,
      "ast": 3974,
      "ĠcÆ¡n": 3975,
      "ÃĪÃİ": 3976,
      "ĠÂ®": 3977,
      "ĠhÆ°": 3978,
      "Ġháº¹n": 3979,
      "ĠdáºŃy": 3980,
      "Ġ70": 3981,
      "300": 3982,
      "uá»·": 3983,
      "ĠCáº§u": 3984,
      "»±n": 3985,
      "ĠtrÃ²n": 3986,
      "»±ng": 3987,
      "Äģ": 3988,
      "Â°Â¸": 3989,
      "ĠthÃ©p": 3990,
      "ĠAd": 3991,
      "áº¦": 3992,
      "ĠÃ¨": 3993,
      "ĠtrÃº": 3994,
      "ĠkÃŃn": 3995,
      "fa": 3996,
      "ÑĢ": 3997,
      "ĠÄĳáºŃu": 3998,
      "Ġpin": 3999,
      "Ġkhuáº©n": 4000,
      "ĠDuy": 4001,
      "lass": 4002,
      "min": 4003,
      "Ġtáº¯t": 4004,
      "ĠbÃ£i": 4005,
      "Ġgiá»įng": 4006,
      "thÃ¹": 4007,
      "háº¯n": 4008,
      "ĠĠ": 4009,
      "ĠGá»Ńi": 4010,
      "ĠLÆ°u": 4011,
      "Ġim": 4012,
      "Þ®": 4013,
      "ÃĥÃ»": 4014,
      "Ġad": 4015,
      "ĠÄĲáº¿n": 4016,
      "ting": 4017,
      "ĠÃĩ": 4018,
      "ĠtÃ¢n": 4019,
      "ĠbÃ²": 4020,
      "ĠÄĳá»ĭc": 4021,
      "ĠÄĳá»ĭch": 4022,
      "TH": 4023,
      "ĠbÃª": 4024,
      "ĠlÆ°á»Ľi": 4025,
      "ĠHO": 4026,
      "ĠÄĳá»īnh": 4027,
      "sh": 4028,
      "Ġmá»¡": 4029,
      "gr": 4030,
      "ĠgiÃły": 4031,
      "ĠMáº¹": 4032,
      "ada": 4033,
      "INH": 4034,
      "Ġxá»ķ": 4035,
      "Ġ2010": 4036,
      "nhÃłng": 4037,
      "ideo": 4038,
      "hung": 4039,
      "èµ": 4040,
      "ĠthÃ¹": 4041,
      "ĠtrÃ´ng": 4042,
      "CP": 4043,
      "ĠnhÃłng": 4044,
      "ná»ķ": 4045,
      "å¼": 4046,
      "ĠdÃ¡m": 4047,
      "ĠØ": 4048,
      "Lo": 4049,
      "tÃ¢y": 4050,
      "????": 4051,
      "))": 4052,
      "è®": 4053,
      "éĩ": 4054,
      "hn": 4055,
      "duc": 4056,
      "£n": 4057,
      "Thá»Ŀi": 4058,
      "Ġdiá»ĩt": 4059,
      "ĠhÃ": 4060,
      "ode": 4061,
      "Ġtrá»įn": 4062,
      "ÃİÃĦ": 4063,
      "ĠÃ´m": 4064,
      "tung": 4065,
      "................................": 4066,
      "man": 4067,
      "Ġtreo": 4068,
      "Ġduyá»ĩt": 4069,
      "Â±Â£": 4070,
      "Ġyou": 4071,
      "ná»Ļp": 4072,
      "váº£i": 4073,
      "uá»Ĺi": 4074,
      "ED": 4075,
      "ĠSá»": 4076,
      "CS": 4077,
      "Ġgiáº¿t": 4078,
      "Ġga": 4079,
      "ĠSo": 4080,
      "ure": 4081,
      "rom": 4082,
      "ĠtÃ¢y": 4083,
      "Ġná»ķ": 4084,
      "Ġbá»ģ": 4085,
      "ĠMo": 4086,
      "ĠtrÃło": 4087,
      "Ġná»Ļp": 4088,
      "vid": 4089,
      "âī": 4090,
      "ÃıÃĺ": 4091,
      "Ġthiá»ĥu": 4092,
      "ThÃ¡ng": 4093,
      "Ġhá»§": 4094,
      "ĠtrÆ°Æ¡ng": 4095,
      "vong": 4096,
      "ĠkhÃ¡n": 4097,
      "Ġváº£i": 4098,
      "ÃĤN": 4099,
      "WW": 4100,
      "son": 4101,
      "viet": 4102,
      "Ġmá»±c": 4103,
      "XH": 4104,
      "ÃĲÃĦ": 4105,
      "ĠloÃłi": 4106,
      "ary": 4107,
      "EO": 4108,
      "ork": 4109,
      "ump": 4110,
      "ĠVietnam": 4111,
      "Ĺng": 4112,
      "AS": 4113,
      "ĠchÃºc": 4114,
      "Ġquá": 4115,
      "Ġchua": 4116,
      "ÄĲÆ°á»£c": 4117,
      "94": 4118,
      "ĠDiá»ĩn": 4119,
      "tÃŃ": 4120,
      "ĠÃĻ": 4121,
      "ĠOnline": 4122,
      "ĠThuáºŃn": 4123,
      "ĳÆ°Æ¡": 4124,
      "ÄĳÆ°Æ¡": 4125,
      "63": 4126,
      "ãģ": 4127,
      "62": 4128,
      "Ġsá»ĳt": 4129,
      "Ġhot": 4130,
      "ĠGiao": 4131,
      "á»¥ng": 4132,
      "ÂµÃĥ": 4133,
      "thÃª": 4134,
      "Ġngu": 4135,
      "Ġváº½": 4136,
      "ĠÄĳÆ°Æ¡": 4137,
      "æľī": 4138,
      "åĨ": 4139,
      "for": 4140,
      "åĲ¬": 4141,
      "ĠTáº¥t": 4142,
      "GB": 4143,
      "ĠThÆ°": 4144,
      "sa": 4145,
      "ĳuÃ´i": 4146,
      "ÄĳuÃ´i": 4147,
      "ĠÆ": 4148,
      "axy": 4149,
      "ĠVá»ģ": 4150,
      "function": 4151,
      "ib": 4152,
      "Ġhttps": 4153,
      "ĠTrÆ°á»Ľc": 4154,
      "å¾": 4155,
      "Con": 4156,
      "ĠthÃª": 4157,
      "ĠÄĳuÃ´i": 4158,
      "ĠToÃłn": 4159,
      "ĠÃĵ": 4160,
      "háº§m": 4161,
      "ĠÄĲÃłi": 4162,
      "alaxy": 4163,
      "æŃ": 4164,
      "ĠUn": 4165,
      "rus": 4166,
      "Ġbáº¯n": 4167,
      "nÃ£o": 4168,
      "Ġvá»ı": 4169,
      "Home": 4170,
      "ĠPhá»¥": 4171,
      "¥i": 4172,
      "ĠÙ": 4173,
      "alo": 4174,
      "ies": 4175,
      "ĠnÃ£o": 4176,
      "ĠtÃŃ": 4177,
      "hg": 4178,
      "Content": 4179,
      "ÃįÃ¢": 4180,
      "Ġthan": 4181,
      "osted": 4182,
      "Â¿Â´": 4183,
      "Ġme": 4184,
      "áº¤T": 4185,
      "ĠThá»ĥ": 4186,
      "ÂºÃĥ": 4187,
      "Sá»ĳ": 4188,
      "ud": 4189,
      "ĠBá»Łi": 4190,
      "nhuáºŃn": 4191,
      "%.": 4192,
      "ÃķÃ½": 4193,
      "ĠnhuáºŃn": 4194,
      "ĠÃİ": 4195,
      "Ġmá»ĭ": 4196,
      "orld": 4197,
      "Ġ90": 4198,
      "ĠNhiá»ģu": 4199,
      "ÃĸÃĺ": 4200,
      "AO": 4201,
      "è¯ķ": 4202,
      "Ġbo": 4203,
      "mg": 4204,
      "ĠchÃ³": 4205,
      "Â¡Â·": 4206,
      "thiá»ĩt": 4207,
      "ĠXÃ£": 4208,
      "Ġvong": 4209,
      "Â±Â±": 4210,
      "ĠÄĲáº¥t": 4211,
      "Ġhá»©ng": 4212,
      "Ġle": 4213,
      "ĠâĤ«": 4214,
      "ĠThÆ°á»Ŀng": 4215,
      "ĠQuáº£n": 4216,
      "ree": 4217,
      "ĠPhÆ°á»Ŀng": 4218,
      "ĠViÃªn": 4219,
      "Ġtung": 4220,
      "Ġá»§n": 4221,
      "Ġï¿½ï¿½": 4222,
      "tÃ": 4223,
      "á»¯u": 4224,
      "Ġthiá»ĩt": 4225,
      "ĠPhÆ°á»Ľc": 4226,
      "ĠkÃªnh": 4227,
      "Ġbá»ĳn": 4228,
      "ĠHuyá»ĩn": 4229,
      "vang": 4230,
      "éĢ": 4231,
      "Ġá»§ng": 4232,
      "Ġcháº¥m": 4233,
      "yo": 4234,
      "ĠDá»": 4235,
      "ĠtháºŃp": 4236,
      "háº£y": 4237,
      "div": 4238,
      "ood": 4239,
      "ade": 4240,
      "Ġ32": 4241,
      "ĠTrá»įng": 4242,
      "ĠNgoáº¡i": 4243,
      "ÃĶÂª": 4244,
      "ug": 4245,
      "Iáº¾": 4246,
      "ara": 4247,
      "ÃĸÃİ": 4248,
      "ĠTá»īnh": 4249,
      "ĠÃĢ": 4250,
      "ÞŃ": 4251,
      "pro": 4252,
      "tem": 4253,
      "»Ļi": 4254,
      "ĠÆ¡i": 4255,
      "ĠkÃ¨o": 4256,
      "ĠTam": 4257,
      "ä¸Ń": 4258,
      "ĠFacebook": 4259,
      "ĠLÃł": 4260,
      "ond": 4261,
      "val": 4262,
      "Æ°á»Ľp": 4263,
      "ÃĢÃ»": 4264,
      "ĠÃ¤": 4265,
      "93": 4266,
      "ï£¿": 4267,
      "ÞĬ": 4268,
      "Ġcong": 4269,
      "Â£Â¬Â¶": 4270,
      "gÃ£": 4271,
      "ĠphÃ¡i": 4272,
      "ĠQuyáº¿t": 4273,
      "ĠbÃ©o": 4274,
      "ET": 4275,
      "ĠÄĲH": 4276,
      "Ġ45": 4277,
      "icro": 4278,
      "CT": 4279,
      "Ġcháº¡m": 4280,
      "Ġcanh": 4281,
      "Ġloa": 4282,
      "ĠTiáº¿ng": 4283,
      "è§": 4284,
      "use": 4285,
      "ÃĴÃĳ": 4286,
      "ÄĲá»ĭa": 4287,
      "Â¡Â¡Â¡Â¡": 4288,
      "Ã¥ÃħÃĨ": 4289,
      "Ġtráº§m": 4290,
      "hÃ¡ch": 4291,
      "ĠbÆ¡i": 4292,
      "ĠHÆ°á»Ľng": 4293,
      "Ġgiá»ıi": 4294,
      "vÆ¡": 4295,
      "ĠrÃ£i": 4296,
      "Ġpháº«u": 4297,
      "å·": 4298,
      "ĠHuáº¿": 4299,
      "Ġtráº¥n": 4300,
      "ÄĲÄĥng": 4301,
      "ĠBáº¡ch": 4302,
      "Ġ});": 4303,
      "Ġbá»ĵi": 4304,
      "ĠGoogle": 4305,
      "ĠLÆ°Æ¡ng": 4306,
      "ĠKáº¿": 4307,
      "ĠVÃµ": 4308,
      "ĠtÃ": 4309,
      "ĠbuÃ´n": 4310,
      "ngÃ£": 4311,
      "ial": 4312,
      "ĠAir": 4313,
      "Ġdata": 4314,
      "ĠNá»": 4315,
      "indows": 4316,
      "ĠNÆ°á»Ľc": 4317,
      "äºĨ": 4318,
      "Ġ99": 4319,
      "ish": 4320,
      "ĠbÃ³": 4321,
      "ĠkhÃ³c": 4322,
      "á»¯a": 4323,
      "ÂµÃ§": 4324,
      "Ġbá»¥i": 4325,
      "Ġgiáº¥c": 4326,
      "Thiáº¿t": 4327,
      "Ġmá»ĩt": 4328,
      "ĠvÆ¡": 4329,
      "ens": 4330,
      "ĠBe": 4331,
      "ĠEn": 4332,
      "ĠsÃ¡nh": 4333,
      "Re": 4334,
      "Ġphá»©c": 4335,
      "\")": 4336,
      "!âĢĿ": 4337,
      "ĠLÆ°á»£t": 4338,
      "ĠHa": 4339,
      "ĠHá»¯u": 4340,
      "ĠApp": 4341,
      "ĠxuÃ¢n": 4342,
      "Ġvá»¡": 4343,
      "ĠQuan": 4344,
      "Ġbá»Ŀ": 4345,
      "ĠÄĳá»±ng": 4346,
      "Ġsáº¯m": 4347,
      "ĠHÃłnh": 4348,
      "HÃ": 4349,
      "ĠDÅ©ng": 4350,
      "å¸": 4351,
      "háº£m": 4352,
      "ÃĦÃļ": 4353,
      "ĠkhoÃ¡n": 4354,
      "nÃªu": 4355,
      "&#": 4356,
      "è¯ķåĲ¬": 4357,
      "arket": 4358,
      "Ġtiá»ģm": 4359,
      "ĠSamsung": 4360,
      "ĠGiá»Ľi": 4361,
      "Ġláº·ng": 4362,
      "ĠÃĦ": 4363,
      "åľ¨çº¿è¯ķåĲ¬": 4364,
      "NhÆ°n": 4365,
      "NhÆ°ng": 4366,
      "uá»Ļng": 4367,
      "ĠCO": 4368,
      "81": 4369,
      "è½": 4370,
      "TP": 4371,
      "Ġcá»±": 4372,
      "Â»Â¸": 4373,
      "ĠYÃªu": 4374,
      "ĠâĪ": 4375,
      "Ġdáº¡": 4376,
      "ĠnÃªu": 4377,
      "HÃł": 4378,
      "Ġbang": 4379,
      "Ġcháº·n": 4380,
      "ĠÃĥ": 4381,
      "vua": 4382,
      "ĠGiáº¥y": 4383,
      "Ġrá»§": 4384,
      "Ġsá»¹": 4385,
      "hÃ¹ng": 4386,
      "tá»": 4387,
      "ĠÄĲÆ°á»£c": 4388,
      "AI": 4389,
      "ĠnghÃ¬n": 4390,
      "ĠÃ®": 4391,
      "ĠTá»±": 4392,
      "ĠChÆ¡i": 4393,
      "Æ¯Æł": 4394,
      "Trung": 4395,
      "ĠngÃ£": 4396,
      "Ġláº§m": 4397,
      "Ġcá»Ŀ": 4398,
      "Ġpháº¥n": 4399,
      "hÃ£n": 4400,
      "TÃ¬m": 4401,
      "ĠVÃĢ": 4402,
      "ÃĨÃ°": 4403,
      "ĠHLV": 4404,
      "nhÃ£n": 4405,
      "ÃıÂµ": 4406,
      "ĠHá»ĩ": 4407,
      "Mua": 4408,
      "ĠTHPT": 4409,
      "ĠEx": 4410,
      "Ġhoang": 4411,
      "ownload": 4412,
      "ĠXÃ¢y": 4413,
      "TrÃªn": 4414,
      "ĠphÃ³": 4415,
      "ĠSá»Ń": 4416,
      "nhan": 4417,
      "ĠMÃ£": 4418,
      "Ġcua": 4419,
      "ÃĩÃ©": 4420,
      "Ġ39": 4421,
      "Ġlam": 4422,
      "ÃıÃ": 4423,
      "ĠtrÃłn": 4424,
      "ĠTrÃªn": 4425,
      "ĠChu": 4426,
      "nháº¯n": 4427,
      "ÃĴÃ¢": 4428,
      "ĠSe": 4429,
      "ĠBÃ¡c": 4430,
      "thÃ¹ng": 4431,
      "ÃİÃ±": 4432,
      "Ġhiá»ĩp": 4433,
      "ĠbÆ¡m": 4434,
      "Ġnháº¯n": 4435,
      "Ġkm": 4436,
      "ÃĲÃħ": 4437,
      "ĠhÃ¹ng": 4438,
      "AY": 4439,
      "ĠnhÃ£n": 4440,
      "ONG": 4441,
      "ÃĭÃ¹": 4442,
      "ĠHÃĢ": 4443,
      "ÃĪÃ«": 4444,
      "Ġhá»§y": 4445,
      "ĠMá»Ĺi": 4446,
      "Ġdá»©t": 4447,
      "Ġ..": 4448,
      "tle": 4449,
      "ĠCá»¥c": 4450,
      "ĠgiÃ¢y": 4451,
      "else": 4452,
      "CC": 4453,
      "ĠCS": 4454,
      "Ġkhá»Ľp": 4455,
      "ĠTrÆ°á»Łng": 4456,
      "out": 4457,
      "ĳiá»ĩu": 4458,
      "Äĳiá»ĩu": 4459,
      "Ġná»Ĺ": 4460,
      "éĹ": 4461,
      "VÃ¬": 4462,
      "ĠChiáº¿n": 4463,
      "ĠTrÆ°Æ¡ng": 4464,
      "by": 4465,
      "Â¹Â²": 4466,
      "tÃ¡n": 4467,
      "71": 4468,
      "Ġhiá»ĥn": 4469,
      "ĠVNÄĲ": 4470,
      "ĠrÃ¡c": 4471,
      "Ġcáº¥m": 4472,
      "ĠÄĳiá»ĩu": 4473,
      "AL": 4474,
      "ÃĬÃĸ": 4475,
      "Ġcá»ķn": 4476,
      "ÄĲáº¡i": 4477,
      "ÃĢÃ¯": 4478,
      "Ġ150": 4479,
      "\\/": 4480,
      "nu": 4481,
      "ÃĲÃĶ": 4482,
      "ĠSer": 4483,
      "Ġcá»ķng": 4484,
      "ĠkhuyÃªn": 4485,
      "ĠMe": 4486,
      "ĠkiÃªn": 4487,
      "Ã©m": 4488,
      "Æ°á»Ľt": 4489,
      "Ġ00": 4490,
      "à¹": 4491,
      "Ġtá»ĳn": 4492,
      "km": 4493,
      "å¯": 4494,
      "ĠTÃłu": 4495,
      "Ġmá»ıi": 4496,
      "ÃīÃ§": 4497,
      "ĠhÃł": 4498,
      "á»ħu": 4499,
      "Ã§Ã§": 4500,
      "Ġphun": 4501,
      "Ùį": 4502,
      "ĠThÆ¡": 4503,
      "ech": 4504,
      "tháº£m": 4505,
      "ĠtÃ¡n": 4506,
      "ĠlÃ³": 4507,
      "Ġhuyn": 4508,
      "Ġngá»«a": 4509,
      "Ġvua": 4510,
      "Chá»": 4511,
      "háº£": 4512,
      "Ġáº¤n": 4513,
      "ĠTO": 4514,
      "oll": 4515,
      "ĠlÃ¢m": 4516,
      "vinh": 4517,
      "ĠSao": 4518,
      "ĠGD": 4519,
      "Ġvang": 4520,
      "Ngh": 4521,
      "Ġhá»ıng": 4522,
      "ĠDoanh": 4523,
      "ä¸ĭ": 4524,
      "ÃĨÃļ": 4525,
      "ĠÄĲá»Ļng": 4526,
      "Ã®Ã¢": 4527,
      "ÃĮNH": 4528,
      "âĢ¦âĢ¦.": 4529,
      "Ġfunction": 4530,
      "ÃıÃł": 4531,
      "Do": 4532,
      "à²¸": 4533,
      "ÃĴÃ©": 4534,
      "Ġ098": 4535,
      "ĠlÅ©": 4536,
      "Ġgá»£i": 4537,
      "ÂµÃ£": 4538,
      "Ġ\\": 4539,
      "Tags": 4540,
      "ĠÂ«": 4541,
      "Ġhuynh": 4542,
      "AC": 4543,
      "Ġmáº¡c": 4544,
      "sub": 4545,
      "ÃĪÃ§": 4546,
      "tÃłn": 4547,
      "OR": 4548,
      "ĠÃį": 4549,
      "BÃªn": 4550,
      "roup": 4551,
      "ony": 4552,
      "nÃºt": 4553,
      "Ġkháº¥u": 4554,
      "ĠPark": 4555,
      "háº§u": 4556,
      "éĻ": 4557,
      "this": 4558,
      "Ġthá»ķ": 4559,
      "ĠCáº£nh": 4560,
      "EL": 4561,
      "IM": 4562,
      "ĠchÃ¹a": 4563,
      "ĠgiÃ¡p": 4564,
      "tar": 4565,
      "alse": 4566,
      "Ġï¿½ï¿½ï¿½": 4567,
      "ĠThÆ°á»£ng": 4568,
      "Æ¯ÆłNG": 4569,
      "hÃ´": 4570,
      "nÆ°á»Ľng": 4571,
      "Ã¿Ã¦": 4572,
      "ĠCHá»": 4573,
      "ĠLoan": 4574,
      "Ġtháº£m": 4575,
      "ÄĲá»ĳi": 4576,
      "Ġcá»Ļt": 4577,
      "Ã±Ã²": 4578,
      "hy": 4579,
      "ĠÄĳáºŃm": 4580,
      "ĠTÃ¬m": 4581,
      "ĠgiÃ£n": 4582,
      "Viá»ĩc": 4583,
      "ĠBáº±ng": 4584,
      "ĠNÃ´ng": 4585,
      "ÃĵÃİÃı": 4586,
      "Ġlong": 4587,
      "ÃĸÃĸ": 4588,
      "ĠDiá»ħn": 4589,
      "ĠnÆ°á»Ľng": 4590,
      "ase": 4591,
      "Ġká»ĭch": 4592,
      "HÃ£y": 4593,
      "å¤§": 4594,
      "Ġsp": 4595,
      "ĠnÃºt": 4596,
      "low": 4597,
      "Ð¾Ð": 4598,
      "Ùĭ": 4599,
      "hÃ¢m": 4600,
      "ĳuá»ķi": 4601,
      "Äĳuá»ķi": 4602,
      "ote": 4603,
      "ous": 4604,
      "ĠtÃłn": 4605,
      "ĠWWW": 4606,
      "urn": 4607,
      "ĠdÃ¢u": 4608,
      "ĠGMT": 4609,
      "Ġkhen": 4610,
      "Cáº§n": 4611,
      "int": 4612,
      "ÃĴÃ²": 4613,
      "ĠgiáºŃn": 4614,
      "ĠcÆ°Æ¡ng": 4615,
      "Vá»ģ": 4616,
      "ĠNgÃ´": 4617,
      "ĠdÃ¢m": 4618,
      "ÃĬÃĨ": 4619,
      "ĠÂº": 4620,
      "tamin": 4621,
      "¨n": 4622,
      "tháº§u": 4623,
      "ĠÆ°a": 4624,
      "ike": 4625,
      "Ġhuáº¥n": 4626,
      "Ġtháº§u": 4627,
      "Sá»±": 4628,
      "ĠÄĳuá»ķi": 4629,
      "åĽ½": 4630,
      "per": 4631,
      "âĢ¦âĢ¦âĢ¦âĢ¦âĢ¦.": 4632,
      "Ġtrá»¥c": 4633,
      "Ġ034": 4634,
      "Ġgáº¡o": 4635,
      "Æ¯á»ľ": 4636,
      "ÄĲá»ĵng": 4637,
      "æľº": 4638,
      "iss": 4639,
      "ĠphÃ¡n": 4640,
      "ague": 4641,
      "ĠÂ°": 4642,
      "ĠthÃ¹ng": 4643,
      "ï»¿": 4644,
      "BÆ°á»Ľc": 4645,
      "IC": 4646,
      "ĠÃ¬": 4647,
      "Ġbá»ĳi": 4648,
      "');": 4649,
      "ĠSing": 4650,
      "Ġlu": 4651,
      "nho": 4652,
      "Ã£nh": 4653,
      "ĠCl": 4654,
      "ĠSh": 4655,
      "khÃ´ng": 4656,
      "nháº£y": 4657,
      "ĠLai": 4658,
      "ĠhÃ´i": 4659,
      "thÃ¡ch": 4660,
      "ĠÃ¥": 4661,
      "Ã¥ÃŃ": 4662,
      "èĢ": 4663,
      "Ġcáº©n": 4664,
      "ĠÄĲá»ĵ": 4665,
      "ĠDe": 4666,
      "ĠâĢ¦âĢ¦âĢ¦âĢ¦âĢ¦.": 4667,
      "çİ": 4668,
      "huyá»ģn": 4669,
      "åĩ": 4670,
      "ant": 4671,
      "à´": 4672,
      "ĠTp": 4673,
      "ĠmÆ°á»Ŀi": 4674,
      "ĠthÃ¡ch": 4675,
      "92": 4676,
      "ĠÄĳáºŃp": 4677,
      "Ġ088": 4678,
      "º¯ng": 4679,
      "Ġong": 4680,
      "ĠKhuyáº¿n": 4681,
      "ĠDN": 4682,
      "ĠHÄĲ": 4683,
      "CÃ´": 4684,
      "ÄĤn": 4685,
      "Ġ120": 4686,
      "ĠxÃ¢m": 4687,
      "Ġmen": 4688,
      "å¿": 4689,
      "ĠÄĳáº¡p": 4690,
      "ĠWeb": 4691,
      "ĠLá»Ļc": 4692,
      "ĠSy": 4693,
      "tre": 4694,
      "atc": 4695,
      "Dá»±": 4696,
      "Ġ086": 4697,
      "vÆ°Æ¡ng": 4698,
      "vers": 4699,
      "háº±ng": 4700,
      "ÂµÃļ": 4701,
      "Ġtop": 4702,
      "%,": 4703,
      "ES": 4704,
      "ĠGr": 4705,
      "ĠViettel": 4706,
      "ĠÃ¡c": 4707,
      "Ëĺ": 4708,
      "ĠII": 4709,
      "ĠmÃ³c": 4710,
      "Ġnháº£y": 4711,
      "apore": 4712,
      "ĠÃĴ": 4713,
      "ĠlÃ²": 4714,
      "ĠSc": 4715,
      "ĠTiÃªu": 4716,
      "¡ch": 4717,
      "ĠHá»£p": 4718,
      "ps": 4719,
      "ĠÄĳá»£t": 4720,
      "ĠCá": 4721,
      "ĠmÃłng": 4722,
      "Ġï¿½ï¿½ï¿½ï¿½ï¿½": 4723,
      "ĠCháº¥t": 4724,
      "æĪĳ": 4725,
      "Ġmo": 4726,
      "thuyá»ģn": 4727,
      "ÃĪÃ½": 4728,
      "ĠFor": 4729,
      "hong": 4730,
      "æ³": 4731,
      "ĠGalaxy": 4732,
      "gia": 4733,
      "ĠMal": 4734,
      "tÃºc": 4735,
      "Ġáº£o": 4736,
      "Ġup": 4737,
      "LÃłm": 4738,
      "á»ŀ": 4739,
      "rl": 4740,
      "ĠbÃ´ng": 4741,
      "ÃįÃ²": 4742,
      "Ġchá»¥c": 4743,
      "ize": 4744,
      "data": 4745,
      "400": 4746,
      "ona": 4747,
      "Ġlaptop": 4748,
      "ANH": 4749,
      "Ġpl": 4750,
      "ĠMáº¡ng": 4751,
      "Ġ_": 4752,
      "Ã¹m": 4753,
      "Ġxoay": 4754,
      "AD": 4755,
      "Ġvitamin": 4756,
      "ĠbÃ¬": 4757,
      "mi": 4758,
      "táº£ng": 4759,
      "áº¢n": 4760,
      "ÃģÂª": 4761,
      "xx": 4762,
      "ãĥ": 4763,
      "ĠSÆ": 4764,
      "ĠCP": 4765,
      "ĠtÃºc": 4766,
      "attr": 4767,
      "Ġthuyá»ģn": 4768,
      "áº¢nh": 4769,
      "Ġtáº£ng": 4770,
      "ieu": 4771,
      "ĠMáº·c": 4772,
      "Ġmuá»ĳi": 4773,
      "ĠSÆ°": 4774,
      "ĠkhÃŃch": 4775,
      "ji": 4776,
      "ĠTÃ´": 4777,
      "ĠCÃ¹ng": 4778,
      "ĠInternet": 4779,
      "Ġmá»ĭn": 4780,
      "ANG": 4781,
      "ChÃŃnh": 4782,
      "ĠXin": 4783,
      "Phim": 4784,
      "háº¥m": 4785,
      "Ġhiáº¿m": 4786,
      "Â¡Â£Â¡Â±": 4787,
      "ĠTriá»ģu": 4788,
      "thÃ¡nh": 4789,
      "Ġxi": 4790,
      "ĠRes": 4791,
      "ĠCÄĥn": 4792,
      "Ġtráº¡i": 4793,
      "ĳÄ©a": 4794,
      "ÄĳÄ©a": 4795,
      "Ã¹y": 4796,
      "Ġgiáº·t": 4797,
      "ná»Ł": 4798,
      "Ġtrá»Ļn": 4799,
      "\");": 4800,
      "ĠMá»Ľi": 4801,
      "ĠxÆ°á»Łng": 4802,
      "ĠsÃºng": 4803,
      "Chá»ī": 4804,
      "hÆ°a": 4805,
      "ÃĬÃĵ": 4806,
      "ĠCÃ¢u": 4807,
      "âĸ": 4808,
      "tháº±ng": 4809,
      "Ġbáº¡ch": 4810,
      "ĠduyÃªn": 4811,
      "ĠdÃ¡n": 4812,
      "ĠCÃ¡i": 4813,
      "2009": 4814,
      "ĠDung": 4815,
      "rid": 4816,
      "ĠÞĢ": 4817,
      "ĠÄĳÄ©a": 4818,
      "uz": 4819,
      "Ġcá»ı": 4820,
      "asino": 4821,
      "ĠTrump": 4822,
      "ĠCup": 4823,
      "ĠNgÃłi": 4824,
      "ĠvÆ°Æ¡ng": 4825,
      "ca": 4826,
      "edia": 4827,
      "tang": 4828,
      "ĠÄĲiá»ĥm": 4829,
      "onal": 4830,
      "táº¿t": 4831,
      "Ġhuá»ĳng": 4832,
      "cÃ³": 4833,
      "Ġná»Ł": 4834,
      "ĠsÃ´i": 4835,
      "ä¸Ĭ": 4836,
      "ign": 4837,
      "ĠRo": 4838,
      "ĠJo": 4839,
      "ÃĸÃĿ": 4840,
      "Ġfile": 4841,
      "UR": 4842,
      "ĠbÃ¡t": 4843,
      "thÃ¢m": 4844,
      "HÆ°á»Ľng": 4845,
      "ĠTho": 4846,
      "pt": 4847,
      "ĠCN": 4848,
      "TM": 4849,
      "NÄĥm": 4850,
      "ÃĨÃ¥ÃħÃĨ": 4851,
      "ĠÄĳá»ĳt": 4852,
      "Nhi": 4853,
      "á»Ļm": 4854,
      "ĠCL": 4855,
      "ĠTÃ´n": 4856,
      "ĠÃĮ": 4857,
      "Ġtáº¿t": 4858,
      "Ġthá»į": 4859,
      "ĠsÃ¡u": 4860,
      "tiá»ĩc": 4861,
      "ºŃy": 4862,
      "ÃĬÃľ": 4863,
      "Ã¸ÃĲÃĲ": 4864,
      "Ġve": 4865,
      "Ġvinh": 4866,
      "ĠbÃ£o": 4867,
      "ĳeo": 4868,
      "Äĳeo": 4869,
      "ĠLá»ħ": 4870,
      "Ġvá»Ļi": 4871,
      "ĠAndroid": 4872,
      "UYá»": 4873,
      "IS": 4874,
      "Ġtiá»ĩc": 4875,
      "61": 4876,
      "Ġváº·t": 4877,
      "Ġac": 4878,
      "HÃ¬nh": 4879,
      ",...": 4880,
      "hÃ³i": 4881,
      "ĠSan": 4882,
      "ĠthÃ¢m": 4883,
      "Ġnho": 4884,
      "ĠAs": 4885,
      "Thi": 4886,
      "ÃıÃ²": 4887,
      "ÃĸÃģ": 4888,
      "ĠmÃŃ": 4889,
      "Ġpm": 4890,
      "ĠTháº£o": 4891,
      "ĠHi": 4892,
      "nhÃ¡nh": 4893,
      "ĠthÃ¡nh": 4894,
      "ĠÄĳeo": 4895,
      "800": 4896,
      "Ġtháº±ng": 4897,
      "çĽ": 4898,
      "ĠÃĬ": 4899,
      "Ġfull": 4900,
      "ĠÄĲáº¡o": 4901,
      "ĠÃ¡i": 4902,
      "Ġman": 4903,
      "tháº£": 4904,
      "ĠnhÃ¡nh": 4905,
      "ĠBH": 4906,
      "ĠTu": 4907,
      "ĠvÃ¡y": 4908,
      "Ġben": 4909,
      "ĠÄĲá»ģ": 4910,
      "ĠAi": 4911,
      "ĠxÄĥng": 4912,
      "Ġshow": 4913,
      "ĠNguy": 4914,
      "IT": 4915,
      "ĠxÃ³a": 4916,
      "Ġit": 4917,
      "org": 4918,
      "Ġruá»Ļt": 4919,
      "ĠchÄĥn": 4920,
      "Ġmiáº¿ng": 4921,
      "Õ¡": 4922,
      "Ġtam": 4923,
      "hÃ¡o": 4924,
      "tháº¯c": 4925,
      "ĠÄĲÃ£": 4926,
      "ĠchÃŃn": 4927,
      "ĳai": 4928,
      "ust": 4929,
      "Äĳai": 4930,
      "ĠGá»": 4931,
      "ĠTinh": 4932,
      "arketing": 4933,
      "Ġtháº¯c": 4934,
      "nhat": 4935,
      "ÃĢÃ¿": 4936,
      "ĠLá»ĭch": 4937,
      "ĠTÃŃnh": 4938,
      "Ġcá»ĳt": 4939,
      "ç«": 4940,
      "Ġnhan": 4941,
      "Ġlá»«a": 4942,
      "ĠÃģo": 4943,
      "ĠÄĳai": 4944,
      "æĹ¶": 4945,
      "Ġgá»¡": 4946,
      "ves": 4947,
      "ĠDanh": 4948,
      "yl": 4949,
      "Ġtáº©y": 4950,
      "Â£Â»": 4951,
      "Æ°á»¡i": 4952,
      "Ġquá»¹": 4953,
      "âĢ¦âĢ¦âĢ¦âĢ¦âĢ¦âĢ¦.": 4954,
      "res": 4955,
      "º«y": 4956,
      "ĠcÃ¡p": 4957,
      "Ġlink": 4958,
      "tro": 4959,
      "ĠÃļc": 4960,
      "ĠKhá»": 4961,
      "ĠVá»¥": 4962,
      "Ġkha": 4963,
      "ĠChung": 4964,
      "ĠÃ¦": 4965,
      "Ġchá»«ng": 4966,
      "Ġhe": 4967,
      "ĠCar": 4968,
      "vÃ¢n": 4969,
      "ĠâĢ¦âĢ¦âĢ¦âĢ¦âĢ¦âĢ¦": 4970,
      "Ġá»ĳ": 4971,
      "Dá»ĭch": 4972,
      "tháº¥m": 4973,
      "Ġwith": 4974,
      "à²¡": 4975,
      "ĠVá»ĭ": 4976,
      "ÃĩÃķÃŁ": 4977,
      "tiáº¿c": 4978,
      "ÃİÃŀ": 4979,
      "Â£Â¿": 4980,
      "Â²Â¼": 4981,
      "PS": 4982,
      "æĬ": 4983,
      "æµ": 4984,
      "ĠAS": 4985,
      "Ġ38": 4986,
      "ĠTT": 4987,
      "ĠÃĹ": 4988,
      "ĠgiáºŃt": 4989,
      "ĠtáºŃt": 4990,
      "()": 4991,
      "ments": 4992,
      "Ġtháº¥m": 4993,
      "ĮC": 4994,
      "ĠHoÃłn": 4995,
      "Ġrá»§i": 4996,
      "91": 4997,
      "Ġchuá»Ļt": 4998,
      "ester": 4999,
      "ĠcÃ¡t": 5000,
      "ĠTrÃŃ": 5001,
      "Ġtrá»ĳng": 5002,
      "Ġvan": 5003,
      "ĠTháº¯ng": 5004,
      "ower": 5005,
      "tra": 5006,
      "ĠSong": 5007,
      "Ġtiáº¿c": 5008,
      "ĠÄĲi": 5009,
      "gÆ°Æ¡": 5010,
      "Ġdow": 5011,
      "ka": 5012,
      "ngÆ°Æ¡": 5013,
      "ĠDÃ¹": 5014,
      "ĠhÃłn": 5015,
      "ĠlÃ£ng": 5016,
      "Ġ033": 5017,
      "Ġchim": 5018,
      "ĠWindows": 5019,
      "ĠbÃ¡": 5020,
      "ĠÞĪ": 5021,
      "LiÃªn": 5022,
      "The": 5023,
      "Xe": 5024,
      "ĠChá»įn": 5025,
      "çľ": 5026,
      "ĠÄĲÆ¡n": 5027,
      "Ġhá»ķ": 5028,
      "ĠChuyÃªn": 5029,
      "æīĭ": 5030,
      "Ġas": 5031,
      "QÄĲ": 5032,
      "ĠTriá»ĩu": 5033,
      "Ġtá»±a": 5034,
      "Â¶Â«": 5035,
      "ĠLy": 5036,
      "ĠCáº£m": 5037,
      "ĠngÆ°Æ¡": 5038,
      "ĠÄĳÃł": 5039,
      "Ġex": 5040,
      "Ġ33": 5041,
      "ĠMay": 5042,
      "dd": 5043,
      "náº¥m": 5044,
      "za": 5045,
      "Ġtháº£": 5046,
      "ĠGIÃģ": 5047,
      "gÆ°á»¡ng": 5048,
      "mer": 5049,
      "Ġ]": 5050,
      "áºŃm": 5051,
      "ngÆ°á»¡ng": 5052,
      "ÃŃÃ®": 5053,
      "ÃīÃ¨": 5054,
      "Ġdong": 5055,
      "nang": 5056,
      "ĠSun": 5057,
      "ĠquÃ¡i": 5058,
      "gáºŃp": 5059,
      "ĠÃ°": 5060,
      "æ¸": 5061,
      "ĠÞĦ": 5062,
      "è¡": 5063,
      "ake": 5064,
      "ÞĦ": 5065,
      "bb": 5066,
      "ĠdÃŃnh": 5067,
      "ĠTy": 5068,
      "hÃ´m": 5069,
      "Ġmáº£nh": 5070,
      "ngáºŃp": 5071,
      "Ġ2009": 5072,
      "ĠNghÄ©a": 5073,
      "ĠngÆ°á»¡ng": 5074,
      "Â»Â·": 5075,
      "æķ": 5076,
      "ĠCÃģ": 5077,
      "LÃ": 5078,
      "ĠÃĪ": 5079,
      "µi": 5080,
      "gen": 5081,
      "ÃĦÃı": 5082,
      "Ġtá»ıa": 5083,
      "ä¹Ĳ": 5084,
      "Ġmá»ıng": 5085,
      "ĠYou": 5086,
      "ĠÂ¹": 5087,
      "ĠtrÃŃch": 5088,
      "ĠtiÃª": 5089,
      "ÃŃÃĬ": 5090,
      "ĠSingapore": 5091,
      "atch": 5092,
      "Lá»": 5093,
      "åĵ": 5094,
      "tÃ¡o": 5095,
      "ĠCÃĶNG": 5096,
      "ĠkÃŃ": 5097,
      "ĠRi": 5098,
      "600": 5099,
      "ĠngáºŃp": 5100,
      "GMT": 5101,
      "Ġnáº¥m": 5102,
      "Ġcá»¡": 5103,
      "ĠPar": 5104,
      "âĪļ": 5105,
      "ano": 5106,
      "ins": 5107,
      "Þ¬.": 5108,
      "è´": 5109,
      "Ġë": 5110,
      "»©t": 5111,
      "Ġmod": 5112,
      "à¾": 5113,
      "ĠCÅ©ng": 5114,
      "Ġres": 5115,
      "thÃ¡o": 5116,
      "thÃ³i": 5117,
      "º«m": 5118,
      "Ġpho": 5119,
      "ĠLáº¡c": 5120,
      "HD": 5121,
      "çĶ¨": 5122,
      "Â¤ÃĹÃ·": 5123,
      "ĠÄĳÃłm": 5124,
      "xy": 5125,
      "ÏĢ": 5126,
      "ban": 5127,
      "ĠTruyá»ģn": 5128,
      "Ġbáº¡o": 5129,
      "bi": 5130,
      "ĠAc": 5131,
      "ki": 5132,
      "ĠBÃ¹i": 5133,
      "Â´Â¦": 5134,
      "ĳÃ¢": 5135,
      "'s": 5136,
      "ĠWorld": 5137,
      "ĠtÃ¡o": 5138,
      "Ġfan": 5139,
      "po": 5140,
      "Ġcháº¥n": 5141,
      "ĠBáº¥t": 5142,
      "ĠCung": 5143,
      "ĠthÃ¡o": 5144,
      "ĠthÃ³i": 5145,
      "ĠghÃ©p": 5146,
      "ĠHáºŃu": 5147,
      "999": 5148,
      "ĥ½": 5149,
      "ĠBiá»ĥn": 5150,
      "Ġsoi": 5151,
      "trong": 5152,
      "120": 5153,
      "Ġhá»©a": 5154,
      "tÃ¡ch": 5155,
      "uro": 5156,
      "ĠApple": 5157,
      "ĠLÃºc": 5158,
      "Ġá»ķ": 5159,
      "able": 5160,
      "ĠtrÃºng": 5161,
      "ÃĩÃ": 5162,
      "º®": 5163,
      "ica": 5164,
      "Å½": 5165,
      "mail": 5166,
      "ĠÄĲÃ´": 5167,
      "ĠUy": 5168,
      "lock": 5169,
      "Ġbá»įc": 5170,
      "ĳe": 5171,
      "ĠÂ³": 5172,
      "Ġ()": 5173,
      "ris": 5174,
      "ĠLoáº¡i": 5175,
      "ĠNháº¡c": 5176,
      "ĠCha": 5177,
      "nhÃ¢": 5178,
      "Ġsh": 5179,
      "Ġï¿½ï¿½ï¿½ï¿½ï¿½ï¿½": 5180,
      "ĠvÃ¢n": 5181,
      "ÄĳÃ¢": 5182,
      "áº¢N": 5183,
      "ãĢĳãĢĲï¼Į": 5184,
      "æĢ": 5185,
      "ĠtÃ¡ch": 5186,
      "Ġte": 5187,
      "kho": 5188,
      "ĠNai": 5189,
      "AG": 5190,
      "Ġ077": 5191,
      "ĠÂ¸": 5192,
      "ĠHe": 5193,
      "Ġ039": 5194,
      "ĠKiáº¿n": 5195,
      "ĠnhÃ¢": 5196,
      "Ġmu": 5197,
      "Ġsay": 5198,
      "ĠMi": 5199,
      "ĠTÄ©nh": 5200,
      "ïĥ": 5201,
      "æĽ": 5202,
      "Äĳe": 5203,
      "Ġshop": 5204,
      "Ġ34": 5205,
      "Ġhá»Ĺn": 5206,
      "áº¦N": 5207,
      "Ġphá»ıng": 5208,
      "ĠÎ": 5209,
      "náº¡p": 5210,
      "ux": 5211,
      "BC": 5212,
      "ĠÄĳÃ¢": 5213,
      "Ġlang": 5214,
      "ĠdÆ°á»Ŀng": 5215,
      "ĠxÃ¡ch": 5216,
      "ĠÄĲinh": 5217,
      ")(": 5218,
      "Nhiá»ģu": 5219,
      "bao": 5220,
      "Å¾": 5221,
      "Ġcm": 5222,
      "ĠãĢĤ": 5223,
      "IV": 5224,
      "ĠtÃ¡": 5225,
      "Ġmá»ĵ": 5226,
      "ĠÃ£ÆĴ": 5227,
      "tive": 5228,
      "nhÃ´m": 5229,
      "ĠkhoÃ¡ng": 5230,
      "ĠLáº¡t": 5231,
      "ĠkÄ©": 5232,
      "Ġmien": 5233,
      "ĠMÆ°á»Ŀi": 5234,
      "ĠsÄĥn": 5235,
      "å¨": 5236,
      "ĠBao": 5237,
      "Ġ400": 5238,
      "?\"": 5239,
      "ãĢĳãĢĲï¼ĮãĢĳãĢĲ": 5240,
      "ĠÃķ": 5241,
      "Þĵ": 5242,
      "ĠÄĳáº¯c": 5243,
      "Ġvo": 5244,
      "ĠTim": 5245,
      "ĠNa": 5246,
      "ames": 5247,
      "ĠQua": 5248,
      "Ġnáº¡p": 5249,
      "gáº¡c": 5250,
      "Ġbá»ķn": 5251,
      "tÃ´m": 5252,
      "ngáº¡c": 5253,
      "ĠphÃŃm": 5254,
      "land": 5255,
      "Thá»±c": 5256,
      "ear": 5257,
      "ÃĬÃ½": 5258,
      "âľ": 5259,
      "ĠThá»¥": 5260,
      "Ġtang": 5261,
      "Ġen": 5262,
      "ĠmÃ©": 5263,
      "Viet": 5264,
      "cÃ´": 5265,
      "ÃĬÃķ": 5266,
      "Ġngáº¡c": 5267,
      "ĠmÆ°u": 5268,
      "Ġclip": 5269,
      "ÃĪÃı": 5270,
      "ru": 5271,
      "ĠÄĳe": 5272,
      "arch": 5273,
      "ĠÃī": 5274,
      "ire": 5275,
      "ĠÃĤm": 5276,
      "col": 5277,
      "play": 5278,
      "ance": 5279,
      "ĠÞĭ": 5280,
      "Ð»": 5281,
      "nga": 5282,
      "Ġbá»ĥ": 5283,
      "Ġháº§m": 5284,
      "press": 5285,
      "Ġ55": 5286,
      "Ã£ÆĴÆĴ": 5287,
      "Ġnghiá»ģn": 5288,
      "Ġ037": 5289,
      "ĠÃ²": 5290,
      "çĲ": 5291,
      "ĠLam": 5292,
      "ĠbÃ¡m": 5293,
      "Ġsmart": 5294,
      "ĠTÄĥng": 5295,
      "ĠtÃ´m": 5296,
      "ĠCÆ°á»Ŀng": 5297,
      "ĠTiáº¿p": 5298,
      "ĠThá»į": 5299,
      "gáº¯m": 5300,
      "ngáº¯m": 5301,
      "ĠâĨ": 5302,
      "Ġar": 5303,
      "ĠTáº§n": 5304,
      "ĠCuá»Ļc": 5305,
      "get": 5306,
      "Ġxá»©ng": 5307,
      "ĠÂ¿": 5308,
      "Káº¿t": 5309,
      "Ġtrá»Ļm": 5310,
      "vel": 5311,
      "tao": 5312,
      "háº¡y": 5313,
      "Ġsá»£i": 5314,
      "áº¬N": 5315,
      "à¤": 5316,
      "ÃİÃĴÃĥÃĩ": 5317,
      "td": 5318,
      "Ġ@": 5319,
      "Ġ37": 5320,
      "ĺI": 5321,
      "ĠMÃ¬nh": 5322,
      "thÃ´": 5323,
      "ĠnhÃ´m": 5324,
      "ock": 5325,
      "150": 5326,
      "undai": 5327,
      "ĠxÃ": 5328,
      "ĠLao": 5329,
      "Ġngáº¯m": 5330,
      "ÄĲáº¿n": 5331,
      "ble": 5332,
      "Â£Â¬Â¸": 5333,
      "orn": 5334,
      "ĠKiá»ĥm": 5335,
      "Ġbáº£y": 5336,
      "Ġ$(\".": 5337,
      "Ġviá»ħn": 5338,
      "ones": 5339,
      "ĠHÆ¡n": 5340,
      "º¨": 5341,
      "ï¼ļ": 5342,
      "ĠcÆ°á»Ľp": 5343,
      "tÃºy": 5344,
      "ĠtrÆ°a": 5345,
      "æĥ": 5346,
      "Ġtrá»Ļi": 5347,
      "UNG": 5348,
      "ons": 5349,
      "Ġau": 5350,
      "ĠtÃºy": 5351,
      "ĠthÃ´": 5352,
      "ĠTrÃ": 5353,
      "Â£Â¬Â´": 5354,
      "nhÆ°á»£ng": 5355,
      "Hai": 5356,
      "ĠdÃłn": 5357,
      "Ġrao": 5358,
      "hÄĥng": 5359,
      "ale": 5360,
      "ĠTrá»ĭ": 5361,
      "åĮ": 5362,
      "ĠnhÆ°á»£ng": 5363,
      "Ġchap": 5364,
      "fo": 5365,
      "ĠHot": 5366,
      "ĠMá»įi": 5367,
      "ement": 5368,
      "Ġgá»ĳi": 5369,
      "aa": 5370,
      "åİ": 5371,
      "dio": 5372,
      "ĠNgay": 5373,
      "hÃ©t": 5374,
      "ļI": 5375,
      "à²³": 5376,
      "lu": 5377,
      "ä»ĸ": 5378,
      "Ġgáº¡ch": 5379,
      "img": 5380,
      "ĠLÃło": 5381,
      "ìĿ": 5382,
      "row": 5383,
      "ĠMob": 5384,
      "Â»Â°": 5385,
      "ĠKá»¹": 5386,
      "ĠTrÃł": 5387,
      "ÃİÃĬÃĮÃ¢": 5388,
      "ĠAu": 5389,
      "ĠNhá»": 5390,
      "Ġbá»Ľt": 5391,
      "ĠMÃłu": 5392,
      "Iá»ĨT": 5393,
      "ÃģN": 5394,
      "ifi": 5395,
      "ĠNháºŃn": 5396,
      "Ã£ÆĴËĨ": 5397,
      "00000": 5398,
      "Ã°Ã": 5399,
      "Ġnhá»ī": 5400,
      "Ġinc": 5401,
      "Ġmy": 5402,
      "ĠFull": 5403,
      "du": 5404,
      "à²®": 5405,
      "Ġmá»Ŀ": 5406,
      "ÃĩÃ²": 5407,
      "Ġemail": 5408,
      "ĠÃı": 5409,
      "ĠÃģn": 5410,
      "Ġchuá»Ĺi": 5411,
      "Ġsáº¡c": 5412,
      "Iá»ĨN": 5413,
      "ĠhiÃª": 5414,
      "ĠÞĬ": 5415,
      "that": 5416,
      "Ġ094": 5417,
      "ÃīÃŃ": 5418,
      "ÃīÃĮ": 5419,
      "ĠVND": 5420,
      "NN": 5421,
      "Ġser": 5422,
      "Ġson": 5423,
      "EM": 5424,
      "Ġbáº¯c": 5425,
      "LÃł": 5426,
      "Ġnu": 5427,
      "ĠÄĲá»Ĺ": 5428,
      "áº¯k": 5429,
      "ef": 5430,
      "ĠInd": 5431,
      "Ġ2008": 5432,
      "ĠTráº»": 5433,
      "ĠTV": 5434,
      "aph": 5435,
      "CÃ¢u": 5436,
      "AP": 5437,
      "ï¿½ï¿½ï¿½ï¿½ï¿½ï¿½ï¿½": 5438,
      "Ġhoáº£ng": 5439,
      "Ġhang": 5440,
      "ĠHuyá»ģn": 5441,
      "Â·Â´": 5442,
      "2008": 5443,
      "anc": 5444,
      "ĠÃĨ": 5445,
      "ĴĮ": 5446,
      "lex": 5447,
      "ĠChuyá»ĥn": 5448,
      "Ġcasino": 5449,
      "noi": 5450,
      "En": 5451,
      "ĠCá»¥": 5452,
      "kh": 5453,
      "gá»Ļ": 5454,
      "ngá»Ļ": 5455,
      "ĠChá»ĭ": 5456,
      "ĠVÃłng": 5457,
      "âĢļÂ¤": 5458,
      "Doc": 5459,
      "ĳam": 5460,
      "Äĳam": 5461,
      "gÃµ": 5462,
      "Ġnga": 5463,
      "ea": 5464,
      "SD": 5465,
      "OT": 5466,
      "Ġbia": 5467,
      "Ġvirus": 5468,
      "lick": 5469,
      "GT": 5470,
      "ãĤ": 5471,
      "ĠÃĸ": 5472,
      "Ġhá»ĳi": 5473,
      "Â£Â¬ÃĹ": 5474,
      "huáº§n": 5475,
      "thÄĥng": 5476,
      "Id": 5477,
      "onda": 5478,
      "ÃıÃ®": 5479,
      "ÌĤ": 5480,
      "Ġdá»ĭu": 5481,
      "ÂºÃľ": 5482,
      "ĠÄĲá»Ļi": 5483,
      "Ġnhá»ĭp": 5484,
      "ThÃłnh": 5485,
      "sin": 5486,
      "ĠChÃ¡nh": 5487,
      "âĤ¬âĢĺ": 5488,
      "KH": 5489,
      "ĠPhÃ¢n": 5490,
      "ĠBáº¿n": 5491,
      "áº¬T": 5492,
      "Ġbáº©n": 5493,
      "ĠchÃºa": 5494,
      "Ġngá»įc": 5495,
      "</": 5496,
      "ĠhÃ¢m": 5497,
      "ĠTop": 5498,
      "ya": 5499,
      "ná»ĵi": 5500,
      "ĠÃ³": 5501,
      "ngÃµ": 5502,
      "Ġ097": 5503,
      "tyle": 5504,
      "Pháº§n": 5505,
      "ÃİÃ¯": 5506,
      "Táº¥t": 5507,
      "Nguá»ĵn": 5508,
      "Ġ==": 5509,
      "Nguyá»ħn": 5510,
      "tube": 5511,
      "ifone": 5512,
      "ĠNÃ³i": 5513,
      "Ġngá»Ļ": 5514,
      "ĠÄĳam": 5515,
      "å®ĺ": 5516,
      "vÆ": 5517,
      "KhÃ¡ch": 5518,
      "åĳ": 5519,
      "Ġ096": 5520,
      "Ġmáº§m": 5521,
      "Ġkhoe": 5522,
      "ĠthÄĥng": 5523,
      "ÄĤN": 5524,
      "nÃ©n": 5525,
      "vÆ°": 5526,
      "reen": 5527,
      "ä¸ª": 5528,
      "hun": 5529,
      "ĠÄĳáº¯t": 5530,
      "ĠKiá»ģu": 5531,
      "NT": 5532,
      "Ġky": 5533,
      "ĠmÃ¡": 5534,
      "sta": 5535,
      "Ġchá»§n": 5536,
      "Ã«Ã¼": 5537,
      "bank": 5538,
      "gÃ³n": 5539,
      "sen": 5540,
      "Ġchá»§ng": 5541,
      "Sáº£n": 5542,
      "Ġheo": 5543,
      "ngÃ³n": 5544,
      "ĠnÃ©n": 5545,
      "ĀĀĀĀĀĀĀĀĀĀĀĀĀĀĀĀĀĀĀĀĀĀĀĀĀĀĀĀĀĀĀĀĀĀĀĀĀĀĀĀĀĀĀĀĀĀĀĀĀĀĀĀĀĀĀĀĀĀĀĀĀĀĀĀĀĀĀĀĀĀĀĀĀĀĀĀĀĀĀĀĀĀĀĀĀĀĀĀĀĀĀĀĀĀĀĀĀĀĀĀĀĀĀĀĀĀĀĀĀĀĀĀĀĀĀĀĀĀĀĀĀĀĀĀĀĀĀĀ": 5546,
      "à½¦": 5547,
      "Ġà²¸": 5548,
      "Com": 5549,
      "háº¡ch": 5550,
      "Þħ": 5551,
      "BÃ¬nh": 5552,
      "ĠCá»Ńa": 5553,
      "Ġvn": 5554,
      "Ġlau": 5555,
      "Çİ": 5556,
      "Ġlá»ĩc": 5557,
      "my": 5558,
      "ĠvÆ°": 5559,
      "ĠTÃ²a": 5560,
      "ĠvÃµ": 5561,
      "ser": 5562,
      "span": 5563,
      "Thanh": 5564,
      "Ġlá»ĩch": 5565,
      "Ġmm": 5566,
      "tory": 5567,
      "ĠlÃ£m": 5568,
      "Ġná»ĵi": 5569,
      "ĠngÃµ": 5570,
      "ĠCÃ¡t": 5571,
      "tháº¡ch": 5572,
      "Ġ48": 5573,
      "Khu": 5574,
      "ĠHay": 5575,
      "ĠTháº¡nh": 5576,
      "nháº¡y": 5577,
      "nhung": 5578,
      "å¤©": 5579,
      "Ġá»ĳc": 5580,
      "ĠngÃ³n": 5581,
      "EC": 5582,
      "ĠMá»¥c": 5583,
      "ĠchÄĥng": 5584,
      "ĠlÃ¡t": 5585,
      "ÃĵÃī": 5586,
      "Ġthis": 5587,
      "ĠSá»©c": 5588,
      "ner": 5589,
      "CÃ²n": 5590,
      "Ä«": 5591,
      "ĠlÆ¡": 5592,
      "háº¡t": 5593,
      "Ġchá»ĳi": 5594,
      "º¶": 5595,
      "Ġtrá»ĳn": 5596,
      "Ġháº±ng": 5597,
      "Ã°Ãł": 5598,
      "æ²": 5599,
      "Ã¬a": 5600,
      "ĠchÆ": 5601,
      "CáºŃp": 5602,
      "à²Ł": 5603,
      "Ġcáº¯m": 5604,
      "ná»¥": 5605,
      "ĠTai": 5606,
      "ĠðŁ": 5607,
      "Thá»§": 5608,
      "Ġtháº¡ch": 5609,
      "Â¼Â¼": 5610,
      "ĠsÃ´": 5611,
      "Ġká»ĩ": 5612,
      "ĠÄĲáº¹p": 5613,
      "Â»Â¶": 5614,
      "ct": 5615,
      "ĠTáº¥n": 5616,
      "vÃª": 5617,
      "VÃ": 5618,
      "ĠlÃºa": 5619,
      "tral": 5620,
      "Thu": 5621,
      "ĠmÃ¬": 5622,
      "BS": 5623,
      "háº«n": 5624,
      "Ġmá»įc": 5625,
      "aysia": 5626,
      "gÆ¡i": 5627,
      "ÃĤÃŀ": 5628,
      "ngÆ¡i": 5629,
      "váº¡n": 5630,
      "vent": 5631,
      "ĠngÆ¡i": 5632,
      "ĠrÅ©": 5633,
      "No": 5634,
      "éĺ": 5635,
      "ari": 5636,
      "ä¿": 5637,
      "ĠMáº¡nh": 5638,
      "ç§": 5639,
      "Ġà²®": 5640,
      "ger": 5641,
      "ĠBr": 5642,
      "Ġchai": 5643,
      "ĠMiá»ħn": 5644,
      "123": 5645,
      "Ġná»¥": 5646,
      "Ġnháº¡y": 5647,
      "¨ng": 5648,
      "Ã«Ã": 5649,
      "ĠQuá»³nh": 5650,
      "Ġtriá»ĩt": 5651,
      "Ġtre": 5652,
      "áº®": 5653,
      "VÃł": 5654,
      "ĠMU": 5655,
      "ÄĲÃ£": 5656,
      "Posted": 5657,
      "åĿ": 5658,
      "æł": 5659,
      "Ġtour": 5660,
      "ĠSÃ¡ng": 5661,
      "Ġcáº¥t": 5662,
      "uá»Ļi": 5663,
      "ĠBá»ĵ": 5664,
      "ÃıÃŁ": 5665,
      "ĠÄĳá»ģn": 5666,
      "Ġmama": 5667,
      "ĠÄĳiÃª": 5668,
      "ĠNÃªn": 5669,
      "ĠcÃºn": 5670,
      "ÃĩÃ³": 5671,
      "ÃĢÃĦ": 5672,
      "ÃįÃĨ": 5673,
      ".,": 5674,
      "Ġ;": 5675,
      "CÅ©ng": 5676,
      "0000009": 5677,
      "wa": 5678,
      "Ġgai": 5679,
      "Giáº£i": 5680,
      "ĠCá»§a": 5681,
      "ÃĬÃĢ": 5682,
      "ĠchÆ°": 5683,
      "AA": 5684,
      "RO": 5685,
      "âīĪ": 5686,
      "ĠchÃ¡n": 5687,
      "voi": 5688,
      "let": 5689,
      "å¹´": 5690,
      "ĠLeague": 5691,
      "ny": 5692,
      "dy": 5693,
      "Kinh": 5694,
      "Ġphiá»ģn": 5695,
      "Ġthat": 5696,
      "ĠvÃª": 5697,
      "Ġchuá»Ļng": 5698,
      "Tháº¿": 5699,
      "Ġnang": 5700,
      "Ġmáº¡n": 5701,
      "Ġnhat": 5702,
      "Ġinch": 5703,
      "ĠtrÃ´i": 5704,
      "ÂŃÂ±": 5705,
      "å±": 5706,
      "ĠÃ¢n": 5707,
      "tain": 5708,
      "Nam": 5709,
      "Ġmau": 5710,
      "tÃłng": 5711,
      "star": 5712,
      "assage": 5713,
      "Ġhiáº¿n": 5714,
      "Ġ75": 5715,
      "ĠVáºŃn": 5716,
      "ÃĢI": 5717,
      "NháºŃn": 5718,
      "Äĳá»": 5719,
      "Ġ250": 5720,
      "xit": 5721,
      "enc": 5722,
      "yota": 5723,
      "Ġmá»ī": 5724,
      "Ġtao": 5725,
      "ĠThá»ĳng": 5726,
      "á»Ľp": 5727,
      "To": 5728,
      "ÃĬÃĶ": 5729,
      "ana": 5730,
      "Ġ%": 5731,
      "nháº«n": 5732,
      "Ã¿Ã§": 5733,
      "ĠHiá»ĩu": 5734,
      "Ġtien": 5735,
      "upload": 5736,
      "ÃĢÃı": 5737,
      "ĠTS": 5738,
      "ĳc": 5739,
      "px": 5740,
      "æİ": 5741,
      "é¢": 5742,
      "ĠÜ": 5743,
      "ĠtÃłng": 5744,
      "Ġváº¡n": 5745,
      "ÃĢN": 5746,
      "ĠlÃ³t": 5747,
      "Ġcá»±u": 5748,
      "ĠchiÃªu": 5749,
      "Ġdá»įc": 5750,
      "Ġlá»£n": 5751,
      "Þĳ": 5752,
      "ĠÆ¡": 5753,
      "ĠSH": 5754,
      "ĳiá»ĩp": 5755,
      "Äĳiá»ĩp": 5756,
      "ĠÄĲT": 5757,
      "Vá»": 5758,
      "Ġkháº©n": 5759,
      "br": 5760,
      "ÃĳÃ´": 5761,
      "¹i": 5762,
      "Æ¯á»ľNG": 5763,
      "gÃłi": 5764,
      "tions": 5765,
      "tv": 5766,
      "ĠmÃ¢y": 5767,
      "ĠmÃ¨": 5768,
      "Ġdá»įa": 5769,
      "ĠDownload": 5770,
      "Ġinternet": 5771,
      "ĠÂ½": 5772,
      "Äĳc": 5773,
      "omes": 5774,
      "vÃ¢": 5775,
      "ÃŃa": 5776,
      "ÄĲiá»ĩn": 5777,
      "ĠCá»¦": 5778,
      "ÃĢÃĸ": 5779,
      "Ġnháº«n": 5780,
      "thuáº§n": 5781,
      "æĶ": 5782,
      "nháº¡t": 5783,
      "ated": 5784,
      "Ġhu": 5785,
      "ĠÄĳiá»ĩp": 5786,
      "ĠBo": 5787,
      "ĠChÃ¢n": 5788,
      "ngÃłi": 5789,
      "Ġá»©c": 5790,
      "tháº§m": 5791,
      "âĢ¦]": 5792,
      "TiÃªu": 5793,
      "CD": 5794,
      "ĠThá»¥y": 5795,
      "Ġbáº¥m": 5796,
      "náº¡": 5797,
      "soft": 5798,
      "ĠbÃºt": 5799,
      "åī": 5800,
      "ĠXuáº¥t": 5801,
      "ĠVÅ©ng": 5802,
      "Â£Â¬Â»": 5803,
      "Iá»Ĥ": 5804,
      "Ġnáº¡": 5805,
      "Ġchuyá»ģn": 5806,
      "ÃŃÃ": 5807,
      "ĠsÃ³t": 5808,
      "Ġ600": 5809,
      "LÆ°u": 5810,
      "LÆ°á»£t": 5811,
      "Ġnháº¡t": 5812,
      "ĠÄĳc": 5813,
      "ĠTay": 5814,
      "Ġtháº§m": 5815,
      "æŀ": 5816,
      "ĠvÃ¢": 5817,
      "ĠcáºŃy": 5818,
      "250": 5819,
      "ĠngÃłi": 5820,
      "ms": 5821,
      "CÄĥn": 5822,
      "ĠThÃŃch": 5823,
      "Ġkhoan": 5824,
      "new": 5825,
      "ĠSÃ¡u": 5826,
      "vin": 5827,
      "ĠVideo": 5828,
      "ÂµÃĤ": 5829,
      "ĠSiÃªu": 5830,
      "Ġtuá»ĩ": 5831,
      "Ġthuáº§n": 5832,
      "ĠTáº£i": 5833,
      "Ġgo": 5834,
      "Ġxá»": 5835,
      "ĠNi": 5836,
      "ĠbiÃª": 5837,
      "ĠCáº¥p": 5838,
      "ĠÄĲá»įc": 5839,
      "Ġchá»ĳt": 5840,
      "''": 5841,
      "not": 5842,
      "è¿Ļ": 5843,
      "ÞĶ": 5844,
      "ÄĲáº·c": 5845,
      "Ġsan": 5846,
      "ĠLá»£i": 5847,
      "ĠCLB": 5848,
      "ĠTÃ¡c": 5849,
      "à³ĩ": 5850,
      "ÃĨÃ¥ÃħÃĨÃĵÃİÃı": 5851,
      "Sim": 5852,
      "æ°": 5853,
      "az": 5854,
      "ier": 5855,
      "Ġlá»¥": 5856,
      "ium": 5857,
      "Õ¡Õ": 5858,
      "Ġxáº£": 5859,
      "UU": 5860,
      "ĠbáºŃn": 5861,
      "Ġquyáº¿n": 5862,
      "æĸ°": 5863,
      "TrÆ°á»Ŀng": 5864,
      "PL": 5865,
      "åĴĮ": 5866,
      "TR": 5867,
      "ĠHuá»³nh": 5868,
      "ĠCá»¦A": 5869,
      "thÃ¢": 5870,
      "çĻ": 5871,
      "Ġ$('.": 5872,
      "Â»Â´": 5873,
      "VáºŃy": 5874,
      "hon": 5875,
      "ĠIS": 5876,
      "Ġváº¹n": 5877,
      "Ġor": 5878,
      "PhÃ²ng": 5879,
      "ÃĤÃĽ": 5880,
      "Ðº": 5881,
      "ĠChap": 5882,
      "ĠTÃ¹ng": 5883,
      "Ġblog": 5884,
      "çĶŁ": 5885,
      "Ġkg": 5886,
      "ĠdÄ©": 5887,
      "!!!": 5888,
      "Ġhá»ıa": 5889,
      "ĠThÃ¢n": 5890,
      "ĠÞĤ": 5891,
      "eturn": 5892,
      "ĠlÃ¢y": 5893,
      "ited": 5894,
      "Ġà²ķ": 5895,
      "Ġ42": 5896,
      "èĩ": 5897,
      "ĠVÃ´": 5898,
      "ĠthÃ¢": 5899,
      "ÃıÃ«": 5900,
      "ÃıÃ»": 5901,
      "ĠTi": 5902,
      "ĠTHU": 5903,
      "Ta": 5904,
      "ĠNGH": 5905,
      "Kho": 5906,
      "\">": 5907,
      "Ġsmartphone": 5908,
      "Ġná»ĵng": 5909,
      "áº¹t": 5910,
      "goo": 5911,
      "¥t": 5912,
      "ÃĵÃ½": 5913,
      "Ġrung": 5914,
      "âĤ¬âĤ¬": 5915,
      "gl": 5916,
      "CB": 5917,
      "ĳÃºc": 5918,
      "ÄĳÃºc": 5919,
      "bet": 5920,
      "ĠReal": 5921,
      "ĠCáº£": 5922,
      "BÃ": 5923,
      "Ġsc": 5924,
      "Ġcai": 5925,
      "ĠThá»ĭn": 5926,
      "ĠPlus": 5927,
      "ĠThá»ĭnh": 5928,
      "Ġstr": 5929,
      "ks": 5930,
      "Ġtá»©": 5931,
      "Ġláº§u": 5932,
      "Iá»Ģ": 5933,
      "Ġsoáº¡n": 5934,
      "Ġtráº¡m": 5935,
      "Ġare": 5936,
      "º¹o": 5937,
      "ĠLH": 5938,
      "ĠPhÆ°á»£ng": 5939,
      "ĠCanada": 5940,
      "ĠvuÃ´ng": 5941,
      "ĠbÃ¹": 5942,
      "ĠÕ": 5943,
      "Ġ64": 5944,
      "ĠÄĳÃºc": 5945,
      "ain": 5946,
      "gÆ": 5947,
      "mar": 5948,
      "ĠcÃºng": 5949,
      "ä¸º": 5950,
      "tÃª": 5951,
      "160": 5952,
      "ico": 5953,
      "åº": 5954,
      "content": 5955,
      "Æ°á»Łi": 5956,
      "666": 5957,
      "Ġgiam": 5958,
      "ngÆ": 5959,
      "ene": 5960,
      "aster": 5961,
      "Ġtia": 5962,
      "Ñĥ": 5963,
      "ĠDáº§u": 5964,
      "ĠÃ´n": 5965,
      "Â¸Â®": 5966,
      "ĠVÃŃ": 5967,
      "ĠmÆ°Æ¡i": 5968,
      "Ġmáº»": 5969,
      "ĠvÃ²": 5970,
      "></": 5971,
      "ĠDiá»ĩp": 5972,
      "Ġngá»įn": 5973,
      "ĠMáº«u": 5974,
      "110": 5975,
      "éĿ": 5976,
      "Ġtá»Ľ": 5977,
      "ĠkhÃ¡t": 5978,
      "mb": 5979,
      "ther": 5980,
      "ĠÄĲÃ¡nh": 5981,
      "date": 5982,
      "ĠâĢĿ": 5983,
      "NhÃ¢n": 5984,
      "ĠTrinh": 5985,
      "ĠHá»ĮC": 5986,
      "ason": 5987,
      "Ġbá»ķng": 5988,
      "ÃĭÃ½": 5989,
      "ĠDÆ°á»£c": 5990,
      "Báº£n": 5991,
      "ÃīÃĻ": 5992,
      "Ká»": 5993,
      "ys": 5994,
      "Ġ44": 5995,
      "ĠÄĲáº·ng": 5996,
      "ĠTrá»Ŀi": 5997,
      "Ġthá»£": 5998,
      "Ã«Ãł": 5999,
      "[/": 6000,
      "ĠÄĳá»ĵn": 6001,
      "ĠPhá»ĳ": 6002,
      "ember": 6003,
      "ero": 6004,
      "ĠMac": 6005,
      "ages": 6006,
      "ĠïĢ": 6007,
      "ÃĹÂ¢": 6008,
      "Ġdownload": 6009,
      "ĠÄĳoáº¡t": 6010,
      "ÃĬÃ©": 6011,
      "hÃ¡p": 6012,
      "ĠkhoÃ¡c": 6013,
      "Ġrá»¡": 6014,
      "IA": 6015,
      "ĠSu": 6016,
      "łnh": 6017,
      "Ã¥Ã²": 6018,
      "ĠngÆ": 6019,
      "Ġsen": 6020,
      "Ġ43": 6021,
      "----------------": 6022,
      "Ġráº¯n": 6023,
      "Ġcháº£": 6024,
      "Ġ88": 6025,
      "Ġxáº¿": 6026,
      "ĠÉ": 6027,
      "IÃĬN": 6028,
      "Ġháº¹p": 6029,
      "900": 6030,
      "365": 6031,
      "df": 6032,
      "ĠShop": 6033,
      "ĠHS": 6034,
      "ĠSP": 6035,
      "wit": 6036,
      "ĠHáº¡nh": 6037,
      "gan": 6038,
      "ĠKiáº¿m": 6039,
      "Tráº£": 6040,
      "HÃ´m": 6041,
      "ten": 6042,
      "ĠÃĭ": 6043,
      "ose": 6044,
      "Ġmá»Ļng": 6045,
      "Ġmini": 6046,
      "huy": 6047,
      "Â¹Â¹": 6048,
      "Viá»ĩt": 6049,
      "ko": 6050,
      "ody": 6051,
      "Ġtrá»į": 6052,
      "Ġbá»Ĺng": 6053,
      "nÃ¡m": 6054,
      "Ġ~": 6055,
      "Ġdá»«a": 6056,
      "ĠcÆ°á»Ľc": 6057,
      "háº¯m": 6058,
      "ÃªÃĮÃ¢": 6059,
      "ĠThay": 6060,
      "ĠBi": 6061,
      "ĠNAM": 6062,
      "****": 6063,
      "ĠtÃŃm": 6064,
      "ĠHÃ´m": 6065,
      "les": 6066,
      "Â²Â½": 6067,
      "Â¡Â±Â¡Â£": 6068,
      "Du": 6069,
      "nÃ´": 6070,
      "æĭ": 6071,
      "ĠnÃ¡m": 6072,
      "Ġtem": 6073,
      "ï¿¯": 6074,
      "ĠBÃłn": 6075,
      "ĠLá»¥c": 6076,
      "So": 6077,
      "ĠTháºŃt": 6078,
      "ĠXanh": 6079,
      "ģĦ": 6080,
      "kin": 6081,
      "Ġ65": 6082,
      "ÃļU": 6083,
      "Ġ[âĢ¦]": 6084,
      "ĠMalaysia": 6085,
      "aphone": 6086,
      "700": 6087,
      "ĠCovid": 6088,
      "???": 6089,
      "phu": 6090,
      "Ġchiáº¿t": 6091,
      "ĠtuÃ¢n": 6092,
      "lipp": 6093,
      "ä»¥": 6094,
      "ĠÄĲo": 6095,
      "ĠMicro": 6096,
      "ere": 6097,
      "æĿ¥": 6098,
      "ĠÃ¯Ã®": 6099,
      "Æ¯á»ļ": 6100,
      "ria": 6101,
      "ĠhÃ²": 6102,
      "¨C": 6103,
      "Ġdien": 6104,
      "PhÃ¡t": 6105,
      "gÃ¢m": 6106,
      "gá»±a": 6107,
      "ngá»±a": 6108,
      "ngÃ¢m": 6109,
      "ÙĮ": 6110,
      "Ġdang": 6111,
      "BÃł": 6112,
      "ĠLá»Ŀi": 6113,
      "ĠâĨĴ": 6114,
      "Ġtiá»ħn": 6115,
      "ĳÃ¢m": 6116,
      "ÄĳÃ¢m": 6117,
      "lt": 6118,
      "Ġfrom": 6119,
      "Ġkhá»©": 6120,
      "ute": 6121,
      "ÃªÃ": 6122,
      "port": 6123,
      "Ġmáº¡o": 6124,
      "ĠmÃ©t": 6125,
      "ĠtráºŃt": 6126,
      "hiá»ĩp": 6127,
      "ĠTháº§y": 6128,
      "ĠÄĳá»ĩm": 6129,
      "ÃģÃĸ": 6130,
      "ĠTham": 6131,
      "ĠÃĳ": 6132,
      "ĠtÃª": 6133,
      "duct": 6134,
      "ĠLÄĥng": 6135,
      "ĠIs": 6136,
      "âĹ": 6137,
      "Ġus": 6138,
      "Ġmuá»Ļn": 6139,
      "ä½ł": 6140,
      "hia": 6141,
      "ĠCol": 6142,
      "ĠTÃªn": 6143,
      "ĠTháº¡ch": 6144,
      "ĠcÃ£i": 6145,
      "Há»įc": 6146,
      "Máº«u": 6147,
      "Gia": 6148,
      "ĠMÃ": 6149,
      "agen": 6150,
      "BÃ¡o": 6151,
      "Ġcay": 6152,
      "err": 6153,
      "Ġ0988": 6154,
      "Ġclass": 6155,
      "ÃĸÃļ": 6156,
      "Tham": 6157,
      "Há»Ļi": 6158,
      "Ã°Ã®": 6159,
      "Video": 6160,
      "ĠâĢĶ": 6161,
      "ĠlÃŃt": 6162,
      "Ġhung": 6163,
      "Ġtá»įa": 6164,
      "ĠToÃ¡n": 6165,
      "Ba": 6166,
      "Ġ$('#": 6167,
      "ĠÞİ": 6168,
      "ĠngÃ¢m": 6169,
      "erc": 6170,
      "Â±Â£Â¬": 6171,
      "ĠMad": 6172,
      "ern": 6173,
      "ĠNguyá»ĩt": 6174,
      "ĠRá»": 6175,
      "ĠtrÃ¡ng": 6176,
      "ĠOp": 6177,
      "á»Ńu": 6178,
      "gg": 6179,
      "Co": 6180,
      "Ã«Ã¨": 6181,
      "arao": 6182,
      "ãĢİ": 6183,
      "ÃĳÃĲ": 6184,
      "ĠÄĳÃ¢m": 6185,
      "vÄ©": 6186,
      "Ġleo": 6187,
      "ãĢı": 6188,
      "CÃ¹ng": 6189,
      "ĠlÃŃn": 6190,
      "bum": 6191,
      "ĠNguá»ĵn": 6192,
      "ĠdÃ£": 6193,
      "Ai": 6194,
      "Ġsofa": 6195,
      "»Ľn": 6196,
      "SÃ¡ng": 6197,
      "Ġkhuyáº¿t": 6198,
      "ĳiÃªn": 6199,
      "ÄĳiÃªn": 6200,
      "ĠHP": 6201,
      "ĠtrÆ°á»£t": 6202,
      "iel": 6203,
      "ĠÄĤn": 6204,
      "Ná»Ļi": 6205,
      "náº¿p": 6206,
      "ĠÄĲá»«ng": 6207,
      "ĠPC": 6208,
      "ĠngÆ°": 6209,
      "Ġchanh": 6210,
      "ath": 6211,
      "Ġngá»±a": 6212,
      "Ġláº¯c": 6213,
      "Ġcháº½": 6214,
      "Ġlá»ıng": 6215,
      "ÃĨÃ³": 6216,
      "GD": 6217,
      "ÃįNH": 6218,
      "box": 6219,
      "ĠHáº±ng": 6220,
      "ĠtiÃªm": 6221,
      "Ġbáº¿n": 6222,
      "å¹³": 6223,
      "Ġoff": 6224,
      "ĠBáº£y": 6225,
      "Ġchinh": 6226,
      "BA": 6227,
      "ÃĳÃĩ": 6228,
      "ĠxÃ³m": 6229,
      "ÃĨÃ¸": 6230,
      "ÃģÃ¬": 6231,
      "ĠvÄ©": 6232,
      "ĠUSB": 6233,
      "MÃ¬nh": 6234,
      "Ġgiáº¥u": 6235,
      "Ġnáº¿p": 6236,
      "éģ": 6237,
      "Ġbá»ĵn": 6238,
      "Ġgiang": 6239,
      "ĠGiÃª": 6240,
      "Ġne": 6241,
      "ĠHotel": 6242,
      "Ġ47": 6243,
      "ÂµÃĦÃĴ": 6244,
      "Ġcá»¥m": 6245,
      "ĠnÃ´": 6246,
      "Â£Â¬Â¡Â°": 6247,
      "Ã²Ã®": 6248,
      "ÃĨÂµ": 6249,
      "ï¾¾": 6250,
      "aser": 6251,
      "Ġpost": 6252,
      "chu": 6253,
      "hoto": 6254,
      "ence": 6255,
      "eck": 6256,
      "ÃĪÃĥ": 6257,
      "gáº§m": 6258,
      "Ġliá»ģu": 6259,
      "day": 6260,
      "Ġcáº£ng": 6261,
      "ĠnhiÃª": 6262,
      "ĠTRá»": 6263,
      "::": 6264,
      "ĠQuÃ": 6265,
      "Â¸Ã·": 6266,
      "ĠMá»Ļc": 6267,
      "ĠHá»ĵi": 6268,
      "Hoa": 6269,
      "vat": 6270,
      "ĠTruyá»ĩn": 6271,
      "ngáº§m": 6272,
      "ĠVáºŃt": 6273,
      "Phá»": 6274,
      "ĠviÃª": 6275,
      "Ġmoi": 6276,
      "Ġxáº¡": 6277,
      "ĠPV": 6278,
      "Ġdai": 6279,
      "Ġsanh": 6280,
      "IP": 6281,
      "ĠGu": 6282,
      "ä¼ļ": 6283,
      "ĠrÃło": 6284,
      "ÙĨ": 6285,
      "Ġinox": 6286,
      "Â±Â¸": 6287,
      "FF": 6288,
      "NguyÃªn": 6289,
      "set": 6290,
      "Ġchoi": 6291,
      "thÃ¡p": 6292,
      "UBND": 6293,
      "Ġngáº§m": 6294,
      "araoke": 6295,
      "ĠHoÃłi": 6296,
      "ĠInter": 6297,
      "hip": 6298,
      "gá»¥": 6299,
      "éĶ": 6300,
      "Äį": 6301,
      "ĠÂ´": 6302,
      "Ġvoi": 6303,
      "áº¹o": 6304,
      "ngá»¥": 6305,
      "Ġ2000": 6306,
      "Ġbom": 6307,
      "2007": 6308,
      "ĠBáº£ng": 6309,
      "phcm": 6310,
      "ĠChÃºc": 6311,
      "try": 6312,
      "Ġlá»Ļc": 6313,
      "ĠMÃ´n": 6314,
      "ĠniÃªm": 6315,
      "NÃ³i": 6316,
      "tim": 6317,
      "ĠTY": 6318,
      "777": 6319,
      "Ġpr": 6320,
      "ĠBÃ³ng": 6321,
      "ĠGold": 6322,
      "Ġnhung": 6323,
      "ĠÃ¡m": 6324,
      "ÃĳÃ¹": 6325,
      "ĠTÃº": 6326,
      "ĠDr": 6327,
      "ÃĬÃµ": 6328,
      "Ġcar": 6329,
      "ĠchÃ¬m": 6330,
      "emo": 6331,
      "ç¾": 6332,
      "Ġï¿½ï¿½ï¿½ï¿½ï¿½ï¿½ï¿½": 6333,
      "Ġ093": 6334,
      "oth": 6335,
      "ĠTáºłI": 6336,
      "åı°": 6337,
      "ThÆ°": 6338,
      "we": 6339,
      "ÃĪÃĭÃĥÃ±": 6340,
      "ĠthÃ¡p": 6341,
      "Ġ2007": 6342,
      "ĠSÄ©": 6343,
      "003": 6344,
      "Ġká»ģ": 6345,
      "ĠMÃ´i": 6346,
      "ÃŃÃ¨": 6347,
      "thiá»ĩp": 6348,
      "Ġke": 6349,
      "ĠBay": 6350,
      "ĠlÃª": 6351,
      "men": 6352,
      "ĠsÆ°u": 6353,
      "thun": 6354,
      "Ġxay": 6355,
      "________": 6356,
      "ĠHoÃ": 6357,
      "vÄ©nh": 6358,
      "å¼Ģ": 6359,
      "Má»¹": 6360,
      "Ġcá»ĳng": 6361,
      "ĠkhÃ³i": 6362,
      "ĠlÆ°á»¡i": 6363,
      "ĠmÃ³ng": 6364,
      "ĠkhÃ¡i": 6365,
      "Ġtro": 6366,
      "ĠThiáº¿u": 6367,
      "Ġthiá»ĩp": 6368,
      "áº¾T": 6369,
      "ĠÄĳá»Ĺ": 6370,
      "åľ°": 6371,
      "revi": 6372,
      "ãĢıãĢİ": 6373,
      "ĠxÆ¡": 6374,
      "Ùī": 6375,
      "ĠTá»·": 6376,
      "ĠVÃło": 6377,
      "ĠMiá»ģn": 6378,
      "è¦": 6379,
      "áº¹p": 6380,
      "Ġmá»ĳc": 6381,
      "divContent": 6382,
      "ĠCáº©m": 6383,
      "aimg": 6384,
      "sinaimg": 6385,
      "Ġkhong": 6386,
      "ÉĽ": 6387,
      "Hz": 6388,
      "Ġhuyá»ģn": 6389,
      "MB": 6390,
      "ava": 6391,
      "ĠvÃº": 6392,
      "ĠghÃ©": 6393,
      "æīĭæľº": 6394,
      "ĠLED": 6395,
      "ĠTuyÃªn": 6396,
      "Â»Â§": 6397,
      "ÃıÃ£": 6398,
      "ĠÄĳiÃªn": 6399,
      "Ġlá»ĵng": 6400,
      "divContentDoc": 6401,
      "doc": 6402,
      "ĠDÃ¹ng": 6403,
      "ĠchÃª": 6404,
      "tÆ¡": 6405,
      "ÂºÃħ": 6406,
      "PH": 6407,
      "ĠCamp": 6408,
      "Ġ49": 6409,
      "Ġdá»įn": 6410,
      "ĠYáº¿n": 6411,
      "Ġ46": 6412,
      "ĠvÄ©nh": 6413,
      "TáºŃp": 6414,
      "lor": 6415,
      "onesia": 6416,
      "ĠlÃŃnh": 6417,
      "Ġrá»±c": 6418,
      "ĠTráº£": 6419,
      "Ġbáº¯p": 6420,
      "Ġhinh": 6421,
      "ĠkhÃ©o": 6422,
      "ÃıÃĪ": 6423,
      "DÃ¹": 6424,
      "Ġao": 6425,
      "Ġven": 6426,
      "ĠÄĳáº¡n": 6427,
      "Ġváº¯ng": 6428,
      "ĠsÆ°Æ¡ng": 6429,
      "ĠÂ¾": 6430,
      "ĠÄĳÃ³i": 6431,
      "ĠLáºŃp": 6432,
      "MS": 6433,
      "str": 6434,
      "ime": 6435,
      "ĠThá»ķ": 6436,
      "tein": 6437,
      "111": 6438,
      "Quy": 6439,
      "ĠlÄĥn": 6440,
      "Ã½t": 6441,
      "ii": 6442,
      "áº»o": 6443,
      "ĠsÆ°á»Ľng": 6444,
      "OL": 6445,
      "Ġlá»ĵ": 6446,
      "Ġ1000": 6447,
      "ĠSup": 6448,
      "Â»Â¤": 6449,
      "ÃĶÃ¶": 6450,
      "NÄĲ": 6451,
      "Ġfalse": 6452,
      "gor": 6453,
      "èĤ": 6454,
      "coin": 6455,
      "HÃłng": 6456,
      "åıĳ": 6457,
      "ÃªÃł": 6458,
      "ĠBÃ©": 6459,
      "Ġcá»ĳc": 6460,
      "Danh": 6461,
      "ÇĲ": 6462,
      "Þ¯": 6463,
      "Ġbai": 6464,
      "æĸ¹": 6465,
      "ĠhÅ©": 6466,
      "(\"#": 6467,
      "ĠThÄĥng": 6468,
      "ĠÄĳáº§m": 6469,
      "eply": 6470,
      "ĠHar": 6471,
      "Bá»ĩnh": 6472,
      "ĠBÄĲ": 6473,
      "ĠdÃ²": 6474,
      "LC": 6475,
      "Æ¯á»¢": 6476,
      "Ġthun": 6477,
      "áº¢I": 6478,
      "Ġfacebook": 6479,
      "Há»ĩ": 6480,
      "show": 6481,
      "ĠchÃ¢m": 6482,
      "Ġcafe": 6483,
      "ek": 6484,
      "ĠlÃ´i": 6485,
      "áº¨": 6486,
      "page": 6487,
      "ĠNews": 6488,
      "Ġdoi": 6489,
      "ÂºÃİ": 6490,
      "ING": 6491,
      "åĪ°": 6492,
      "ÃĮÃµ": 6493,
      "ÃĦÃĥÃħ": 6494,
      "LÄĲ": 6495,
      "Hot": 6496,
      "!\"": 6497,
      "æľĢ": 6498,
      "ĠhÃ£i": 6499,
      "ÙĦ": 6500,
      "ÃĦÃ£": 6501,
      "google": 6502,
      "ĠTrá»ĭnh": 6503,
      "form": 6504,
      "ÃīÃĴÃĶ": 6505,
      "ĠOff": 6506,
      "gin": 6507,
      "ĠÂ¼": 6508,
      "nÆ°Æ¡ng": 6509,
      "ÃĭÃĢ": 6510,
      "quan": 6511,
      "háº¯t": 6512,
      "Â£Â¬Â°": 6513,
      "ĠLá»ĩ": 6514,
      "olf": 6515,
      "ĠNÆ¡i": 6516,
      "text": 6517,
      "ĠCÃł": 6518,
      "ala": 6519,
      "hem": 6520,
      "ĠÄĳáº¯p": 6521,
      "ĠEl": 6522,
      "Â·Â¿": 6523,
      "Há»ĵ": 6524,
      "ĠThiá»ĩn": 6525,
      "ĠKÃŃch": 6526,
      "ĠTuyáº¿t": 6527,
      "ÃīÃĨ": 6528,
      "Xin": 6529,
      "Ġhoan": 6530,
      "ĠxÃ´ng": 6531,
      "ÃĢY": 6532,
      "ĠcÃ¡m": 6533,
      "ä»¬": 6534,
      "333": 6535,
      "VÃło": 6536,
      "Ġngá»¥": 6537,
      "revious": 6538,
      "unt": 6539,
      "ĠbÃ³n": 6540,
      "ĠnÆ°Æ¡ng": 6541,
      "ĠÃ©": 6542,
      "Máº·c": 6543,
      "ĠCáºŃp": 6544,
      "bÃ¡n": 6545,
      "right": 6546,
      "Ġháº£": 6547,
      "Ġmassage": 6548,
      "VÄĥn": 6549,
      "ĠháºŃn": 6550,
      "Ġkhá»ķng": 6551,
      "ÃįÃħ": 6552,
      "ÄĲáº§u": 6553,
      "PhÆ°Æ¡ng": 6554,
      "Ġset": 6555,
      "ĠPháº£i": 6556,
      "Ġkhe": 6557,
      "ÃĵÃĳ": 6558,
      "GS": 6559,
      "ĠTháº¥t": 6560,
      "ery": 6561,
      "Ġ800": 6562,
      "ĠHonda": 6563,
      "ĠÃ«": 6564,
      "á»ĭt": 6565,
      "ĠKiÃªn": 6566,
      "gá": 6567,
      "null": 6568,
      "ĠmÃ¨o": 6569,
      "æĪĲ": 6570,
      "ÃĭÃĦ": 6571,
      "TÃªn": 6572,
      "ÃķÃħ": 6573,
      "ngá": 6574,
      "ÃĶÃ¬": 6575,
      "ÃªÃ®": 6576,
      "RE": 6577,
      "ley": 6578,
      "Ġ41": 6579,
      "TÃ¬nh": 6580,
      "Báº£o": 6581,
      "Ġgam": 6582,
      "ĠhoÃł": 6583,
      "ĠPhilipp": 6584,
      "ÃĹÂ¨": 6585,
      "ï¬": 6586,
      "ĠHoáº·c": 6587,
      "Ġ035": 6588,
      "ĠCal": 6589,
      "bay": 6590,
      "ja": 6591,
      "OP": 6592,
      "ĠDÆ°á»Ľi": 6593,
      "ĠquÃ¡t": 6594,
      "ÄĲiá»ĥm": 6595,
      "nháº§m": 6596,
      "ĠĠĠĠ": 6597,
      "aki": 6598,
      "uch": 6599,
      "ÃĶÃĻ": 6600,
      "ChuyÃªn": 6601,
      "Ġsi": 6602,
      "AND": 6603,
      "enter": 6604,
      "ÃĸÂª": 6605,
      "back": 6606,
      "ĠÃŃÃ": 6607,
      "ĠÄĳáº»": 6608,
      "quang": 6609,
      "ĠphÆ¡i": 6610,
      "ĠSai": 6611,
      "ĠtrÆ°Æ¡": 6612,
      "book": 6613,
      "Ġngá": 6614,
      "ĠchÃ©p": 6615,
      "ĠSt": 6616,
      "tháº¯t": 6617,
      "ĠVIá»ĨT": 6618,
      "ĠCÃ¢y": 6619,
      "now": 6620,
      "dr": 6621,
      "ĠÄĳÃ¡y": 6622,
      "ĠMon": 6623,
      "háºŃp": 6624,
      "Ġ036": 6625,
      "050": 6626,
      "nÃ¢u": 6627,
      "Ġbá»ĳc": 6628,
      "ĠtÆ¡": 6629,
      "ĠNghiÃªn": 6630,
      "Ban": 6631,
      "Ġmáº¿n": 6632,
      "°C": 6633,
      "Ġquáº¡t": 6634,
      "è½½": 6635,
      "ater": 6636,
      "Ã¥Ã°": 6637,
      "ĠTáº¡o": 6638,
      "çĶµ": 6639,
      "Ġphá»ķi": 6640,
      "háº¥u": 6641,
      "Ġnháº§m": 6642,
      "ĠÃģnh": 6643,
      "ĠThuá»ĳc": 6644,
      "Â´Â«": 6645,
      "tháº¥u": 6646,
      "trol": 6647,
      "gmail": 6648,
      "ĠBlack": 6649,
      "éĽ": 6650,
      "ĠbÃ´i": 6651,
      "ĠMÃł": 6652,
      "Ġgu": 6653,
      "ight": 6654,
      "ĆĈ": 6655,
      "Ex": 6656,
      "DÃ¢n": 6657,
      "ĠKá»·": 6658,
      "âĢ¦âĢ¦âĢ¦âĢ¦âĢ¦âĢ¦âĢ¦âĢ¦": 6659,
      "......": 6660,
      "ĠTÆ°á»Ŀng": 6661,
      "oly": 6662,
      "ĠToyota": 6663,
      "ÃĸÃľ": 6664,
      "){": 6665,
      "ĠHÃ¡n": 6666,
      "ĠXS": 6667,
      "ĠIP": 6668,
      "ÄĲÆ°á»Ŀng": 6669,
      "ĠQuyá»ģn": 6670,
      "tui": 6671,
      "ÃįÃµ": 6672,
      "ÃĶÃ°": 6673,
      "ç¥": 6674,
      "ĠTe": 6675,
      "ĠnÃ¢u": 6676,
      "\"]": 6677,
      "ĠgáºŃt": 6678,
      "Máº·t": 6679,
      "lymp": 6680,
      "Ġtháº¯t": 6681,
      "Ġtháº¥u": 6682,
      "ĠCHO": 6683,
      "ĠTáº¿": 6684,
      "ĠVáº¥n": 6685,
      "à²ª": 6686,
      "Â¡Â±Â£Â¬": 6687,
      "Top": 6688,
      "má»Ļt": 6689,
      "ĠMB": 6690,
      "ÃıÃĶ": 6691,
      "ÃĴÃļ": 6692,
      "EAN": 6693,
      "ĠÃªm": 6694,
      "tore": 6695,
      "ĠNhÆ¡n": 6696,
      "ĠSÃ¡ch": 6697,
      "rt": 6698,
      "opy": 6699,
      "æ¶": 6700,
      "Ùİ": 6701,
      "Ġ110": 6702,
      "Ġlen": 6703,
      "ĠBarc": 6704,
      "ĠMobifone": 6705,
      "pa": 6706,
      "Ġun": 6707,
      "click": 6708,
      "Tháº£o": 6709,
      "ument": 6710,
      "ĠChá»©ng": 6711,
      "ĠMod": 6712,
      "Ġlá»¡": 6713,
      "].": 6714,
      "ÄĲÃ¡nh": 6715,
      "video": 6716,
      "ĠTrÃ¬nh": 6717,
      "CÆ¡": 6718,
      "mo": 6719,
      "æĹ¥": 6720,
      "ĠÂµ": 6721,
      "Ġmá»ķ": 6722,
      "ticle": 6723,
      "æ¬": 6724,
      "ĠmÃ²n": 6725,
      "can": 6726,
      "';": 6727,
      "PN": 6728,
      "Â¾Â³": 6729,
      ".-": 6730,
      "Ġ>>": 6731,
      "php": 6732,
      "lic": 6733,
      "Ġdau": 6734,
      "ĠMÃ¹a": 6735,
      "hÅ©ng": 6736,
      "may": 6737,
      "ĠFPT": 6738,
      "Ġá»ĵn": 6739,
      "elsea": 6740,
      "âĪĳ": 6741,
      "ĠquÃ©t": 6742,
      "íķ": 6743,
      "ä½ĵ": 6744,
      "Ġkhoáº»": 6745,
      "dong": 6746,
      "lam": 6747,
      "Ġdáº¡o": 6748,
      "Ġhá»įng": 6749,
      "æĸ¯": 6750,
      "Ġtriá»ģu": 6751,
      "ĠDT": 6752,
      "Ġvisa": 6753,
      "bl": 6754,
      "ĠChuyá»ĩn": 6755,
      "Â»Â»": 6756,
      "Tiáº¿p": 6757,
      "ĠSyria": 6758,
      "çĪ": 6759,
      "ĠTuá»ķi": 6760,
      "Ġview": 6761,
      "ĠrÃ¨n": 6762,
      "gÃło": 6763,
      "ä¾": 6764,
      "ÃĥÆĴ": 6765,
      "ÃĤÃŃ": 6766,
      "Ġà²¨": 6767,
      "tional": 6768,
      "Ġbong": 6769,
      "Ġtrinh": 6770,
      "ÄĲá»ģ": 6771,
      "Ġfree": 6772,
      "||": 6773,
      "VD": 6774,
      "Ġwas": 6775,
      "ĠThÃªm": 6776,
      "ĠNghiá»ĩp": 6777,
      "tphcm": 6778,
      "ĠtrÆ¡n": 6779,
      "åŃĲ": 6780,
      "Â¡Â£Â¡Â°": 6781,
      "ese": 6782,
      "ĠThuáºŃt": 6783,
      "ĠCuá»ĳi": 6784,
      "ĠRáº¥t": 6785,
      "ĠTÃŃn": 6786,
      "Ð²": 6787,
      "que": 6788,
      "ĠJun": 6789,
      "cess": 6790,
      "ĠbÃ´": 6791,
      "ÃĲÃĩ": 6792,
      "ï¼Ī": 6793,
      "Äº": 6794,
      "Ġthoa": 6795,
      "ä¹ĭ": 6796,
      "ĠÃ·": 6797,
      "220": 6798,
      "ĠKit": 6799,
      "ä¸ĭè½½": 6800,
      "ĳu": 6801,
      "Chá»ĭ": 6802,
      "å½©": 6803,
      "ĠGroup": 6804,
      "è¾": 6805,
      "Ngay": 6806,
      "Â°ÃĹ": 6807,
      "ĠlÄĥng": 6808,
      "nÃ¡t": 6809,
      "âĢĮ": 6810,
      "ĠdÃ¢ng": 6811,
      "GA": 6812,
      "ĠPHÃģ": 6813,
      "ĠMT": 6814,
      "à½Ĥ": 6815,
      "ĠgÃ£": 6816,
      "ĠÃħ": 6817,
      "ĠGT": 6818,
      "BT": 6819,
      "hÄĥn": 6820,
      "ĠkhÃ¢u": 6821,
      "gel": 6822,
      "Ġdep": 6823,
      "Ñı": 6824,
      "Ø§": 6825,
      "ds": 6826,
      "ym": 6827,
      "Ġ$(\"#": 6828,
      "Cuá»Ļc": 6829,
      "Le": 6830,
      "ĠBáº¡c": 6831,
      "hÆ°á»£c": 6832,
      "Äĳu": 6833,
      "ĠCor": 6834,
      "Diá»ĩn": 6835,
      "ngÃło": 6836,
      "Má»Ĺi": 6837,
      "áº©y": 6838,
      "ron": 6839,
      "ĠChiá»ģu": 6840,
      "Giá»Ľi": 6841,
      "ĠGiá»Ŀ": 6842,
      "ÃįÃª": 6843,
      "ref": 6844,
      "ĠphÃ¡o": 6845,
      "ĠnÃ¡t": 6846,
      "ĠngÃło": 6847,
      "ĠHiá»ģn": 6848,
      "Ġsáº¥y": 6849,
      "Ġmáº£ng": 6850,
      "Ġhao": 6851,
      "Ġbá»ın": 6852,
      "ÃĤY": 6853,
      "ÃŃÃł": 6854,
      "nhÅ©ng": 6855,
      "uchia": 6856,
      "ĠTháº©m": 6857,
      "Ġkhiáº¿u": 6858,
      "Cáº£m": 6859,
      "Ãģo": 6860,
      "ĠkhÃ´n": 6861,
      "âģĦ": 6862,
      "è·": 6863,
      "å¦": 6864,
      "Ġ52": 6865,
      "ĠBá»ĭ": 6866,
      "âĢ¦âĢĿ": 6867,
      "Ġmá»ı": 6868,
      "ÃıÃŀ": 6869,
      "ĠnhÅ©ng": 6870,
      "åŁ": 6871,
      "ĠNiÃªn": 6872,
      "ÃĲÃ¨": 6873,
      "vic": 6874,
      "LÃºc": 6875,
      "æ´": 6876,
      "åĩº": 6877,
      "ÃĪÃĭÃĶ": 6878,
      "Pad": 6879,
      "ĠlÃ¹ng": 6880,
      "nÃ©m": 6881,
      "ert": 6882,
      "ĠÄĲÃłn": 6883,
      "tÃ¢": 6884,
      "âĺ": 6885,
      "ĠchÃ©n": 6886,
      "Ġyour": 6887,
      "KT": 6888,
      "/.": 6889,
      "ÃĸÃĤ": 6890,
      "ĠgiÆ¡": 6891,
      "Â´Â£Â¬": 6892,
      "Ġ56": 6893,
      "ĠvÃ¡ch": 6894,
      "ĠÂª": 6895,
      "ĠÆ°": 6896,
      "Ġrun": 6897,
      "ĠGo": 6898,
      "Ġcac": 6899,
      "ĠNÄĥng": 6900,
      "Ġ54": 6901,
      "Ġ},": 6902,
      "Trá»": 6903,
      "ĠAN": 6904,
      "Ġsá»ī": 6905,
      "ÃķÃ»": 6906,
      "áº¹n": 6907,
      "ÃĶÃĭ": 6908,
      "Ġ66": 6909,
      "ĠHá»Ĺ": 6910,
      "âĢļÂ¯": 6911,
      "ĠIndonesia": 6912,
      "ĠMÃ´": 6913,
      "ĠtrÃłng": 6914,
      "tn": 6915,
      "ÃĨÃĢ": 6916,
      "Ġbá»ıng": 6917,
      "æ¯": 6918,
      "ĠÄĳu": 6919,
      "hh": 6920,
      "Ġsá»ĳc": 6921,
      "Ġ51": 6922,
      "vietnam": 6923,
      "ĠmÅ©": 6924,
      "TÃ¡c": 6925,
      "Â´Â´": 6926,
      "ĠÄĲáº¿": 6927,
      "è¦ģ": 6928,
      "222": 6929,
      "ĠlÃµi": 6930,
      "arm": 6931,
      "ĠkhÃ´i": 6932,
      "Ġsho": 6933,
      "ĠTN": 6934,
      "ĠThá»«a": 6935,
      "ïī": 6936,
      "ĠPo": 6937,
      "Ty": 6938,
      "ĠMau": 6939,
      "tri": 6940,
      "MP": 6941,
      "áº¤P": 6942,
      "ĠSEO": 6943,
      "ĠPhu": 6944,
      "ÃĨÃķ": 6945,
      "ĠOlymp": 6946,
      "Ġsáº¹o": 6947,
      "ĠâĢ¦âĢ¦.": 6948,
      "ĠYo": 6949,
      "ĠBang": 6950,
      "tÃ¡m": 6951,
      "ĬCH": 6952,
      "zz": 6953,
      "ĠCá»©": 6954,
      "ĠtrÄĥng": 6955,
      "ĠTre": 6956,
      "ĠKÃ½": 6957,
      "ÃģCH": 6958,
      "ĠBlog": 6959,
      "ºº": 6960,
      "ÃħÃĲ": 6961,
      "Ġpháº¿": 6962,
      "ĠthoÃ¡i": 6963,
      "âĢĶâĢĶ": 6964,
      "vÃł": 6965,
      "ÃĩÃ¥": 6966,
      "Ä±": 6967,
      "åĵģ": 6968,
      "ĠXi": 6969,
      "ĠUni": 6970,
      "ĠrÃ": 6971,
      "âĨ": 6972,
      "Â°Â´": 6973,
      "Ġnguoi": 6974,
      "æĦ": 6975,
      "ĠÄĲÃ¡": 6976,
      "ĠPan": 6977,
      "ĠxÃŃ": 6978,
      "ĠKhai": 6979,
      "ĠtÃ¢": 6980,
      "ÃģY": 6981,
      "çīĪ": 6982,
      "ĠMobile": 6983,
      "ĠmÄĥng": 6984,
      "ĠLÃ£nh": 6985,
      "CL": 6986,
      "ĳÃ¹a": 6987,
      "ÄĳÃ¹a": 6988,
      "ĠLÃĢ": 6989,
      "ĠMin": 6990,
      "ĠÂ±": 6991,
      "ĠÆ°á»Ľt": 6992,
      "Ġà²ª": 6993,
      "åľº": 6994,
      "====": 6995,
      "ĠÄĳá»Ľn": 6996,
      "arden": 6997,
      "ĠVinaphone": 6998,
      "ðĿ": 6999,
      "ÃľÃĢÃŃ": 7000,
      "tiá»ĩm": 7001,
      "xem": 7002,
      "ĠcháºŃu": 7003,
      "ÃĶÃĺ": 7004,
      "ĠbuÃ´ng": 7005,
      "ĠDÃ¢y": 7006,
      "Åķ": 7007,
      "ĠÃŃÃł": 7008,
      "TÆ": 7009,
      "Ġthá»ķi": 7010,
      "Ġnot": 7011,
      "váº£": 7012,
      "ÃĵÃĸ": 7013,
      "ĠNhÃ¬n": 7014,
      "TÆ°": 7015,
      "ĠÂ¥": 7016,
      "Ġtivi": 7017,
      "EA": 7018,
      "nháº¯m": 7019,
      "ĠvÆ°Æ¡n": 7020,
      "ĠTranh": 7021,
      "à½²": 7022,
      "ions": 7023,
      "à³Ĥ": 7024,
      "ĠVis": 7025,
      "ĠSony": 7026,
      "ĠÄĳÃ¹a": 7027,
      "nhÃŃ": 7028,
      "ÃķÃ¦": 7029,
      "Ġváº£": 7030,
      "ĠAP": 7031,
      "555": 7032,
      "VID": 7033,
      "itcoin": 7034,
      "Next": 7035,
      "2006": 7036,
      "ÃĭÃ»ÃĥÃĩ": 7037,
      "nb": 7038,
      "sl": 7039,
      "nc": 7040,
      "ĠOne": 7041,
      "Ġ0799": 7042,
      "ĠÂ©": 7043,
      "ĠVal": 7044,
      "ĠBÃ¡": 7045,
      "ĠtÃ¡m": 7046,
      "ĠCr": 7047,
      "Ġthuong": 7048,
      "ná»ģ": 7049,
      "idt": 7050,
      "ĠGS": 7051,
      "Ġ0906": 7052,
      "ĠCT": 7053,
      "Ġtiá»ĩm": 7054,
      "ÃİÃħ": 7055,
      "ĠNHÃĢ": 7056,
      "Ġxá»ī": 7057,
      "IL": 7058,
      "Ġnew": 7059,
      "å®ĺç½ĳ": 7060,
      "Ġná»ģ": 7061,
      "áº¶": 7062,
      "à½ĳ": 7063,
      "Ġelse": 7064,
      "ĠSá»ĳng": 7065,
      "éĹ¨": 7066,
      "Â¸Â±": 7067,
      "ĠRa": 7068,
      "hÃ£": 7069,
      "ĠghÃ©t": 7070,
      "ĠÄĲáº¡t": 7071,
      ",,": 7072,
      "FA": 7073,
      "ĠBÄĥng": 7074,
      "Ġtui": 7075,
      "wei": 7076,
      "âĻ": 7077,
      "ĠHÄĲND": 7078,
      "Ca": 7079,
      "Â£Â¡": 7080,
      "EX": 7081,
      "ĠTá»ĳt": 7082,
      "ura": 7083,
      "Ġnháº¯m": 7084,
      "ĠQuÃ¡n": 7085,
      "ĠnhÃŃ": 7086,
      "nhÄĥn": 7087,
      "Ġviews": 7088,
      "Ġcau": 7089,
      "der": 7090,
      "Ġbl": 7091,
      "¡Âº": 7092,
      "å®¶": 7093,
      "ĠSá»Ĳ": 7094,
      "ĠGÃ²": 7095,
      "Ġ85": 7096,
      "%)": 7097,
      "Ġláº¥p": 7098,
      "ĠmÄĥ": 7099,
      "898": 7100,
      "ĠnhÄĥn": 7101,
      "ns": 7102,
      "ĠXuyÃªn": 7103,
      "ĠchiÃªn": 7104,
      "ĠTrÃ¡i": 7105,
      "ĠphÃ¢": 7106,
      "ĠSá»Ńa": 7107,
      "ĠlÆ": 7108,
      "Ġá»Ĳ": 7109,
      "ĠPháº©m": 7110,
      "uá»¹": 7111,
      "ÃĦÃĩ": 7112,
      "ĠNhá»Ŀ": 7113,
      "uáº«n": 7114,
      "Ġkhoai": 7115,
      "Chiá»ģu": 7116,
      "áºº": 7117,
      "ĠPhilippines": 7118,
      "Õ¥": 7119,
      "ĠxÄĥm": 7120,
      "cd": 7121,
      "KÃŃch": 7122,
      "Link": 7123,
      "Â¸Â´": 7124,
      "ĠDá»¥ng": 7125,
      "Má»Ľi": 7126,
      "ĠOr": 7127,
      "ĠLG": 7128,
      "±ä¹Ĳ": 7129,
      "ise": 7130,
      "ĠbÃ¹ng": 7131,
      "ĠTM": 7132,
      "Ġday": 7133,
      "nhÆ°á»£c": 7134,
      "ĠCai": 7135,
      "ÃīÃ®": 7136,
      "ading": 7137,
      "ĠCháº³ng": 7138,
      "ÃºÃĬ": 7139,
      "náº¯p": 7140,
      "ÖĢ": 7141,
      "å¯¹": 7142,
      "xe": 7143,
      "ĠÄĲá»ĺ": 7144,
      "lin": 7145,
      "ae": 7146,
      "ĠlÃ¹i": 7147,
      "ating": 7148,
      "ÃİÃĢ": 7149,
      "âĢĵâĦ¢": 7150,
      "hiáº¿p": 7151,
      "ĠnÃ©m": 7152,
      "ĠchÃ¨": 7153,
      "Ġ95": 7154,
      "pos": 7155,
      "Ġá»¨ng": 7156,
      "dis": 7157,
      "$(": 7158,
      "ĠLÆ°á»£ng": 7159,
      "ĠhoÃłi": 7160,
      "cÃ¡c": 7161,
      "ĠCamera": 7162,
      "CÃ¡i": 7163,
      "ĠÄĲáº£o": 7164,
      "ĠÄĲan": 7165,
      "Bá»": 7166,
      "Sá»Ń": 7167,
      "Ã¢Ã": 7168,
      "Ġham": 7169,
      "Ġaxit": 7170,
      "Ġchay": 7171,
      "Ġkhuy": 7172,
      "lec": 7173,
      "news": 7174,
      "ÃĢÃ": 7175,
      "ĠBar": 7176,
      "Ġnáº¯p": 7177,
      "ĠNghe": 7178,
      "par": 7179,
      "Ġlogo": 7180,
      "ĠÞĥ": 7181,
      "á»±u": 7182,
      "Sá»Ńa": 7183,
      "éĩĳ": 7184,
      "Ġpháº³ng": 7185,
      "ĠComments": 7186,
      "ĠnhÆ°á»£c": 7187,
      "idth": 7188,
      "Pr": 7189,
      "Báº£ng": 7190,
      "Ġrá»ĳt": 7191,
      "fr": 7192,
      "ĠCá»ĳ": 7193,
      "ĠTuyá»ĥn": 7194,
      "è¯Ń": 7195,
      "raz": 7196,
      "è¶": 7197,
      "Ġcuoc": 7198,
      "ĠThÃºy": 7199,
      "Ġbar": 7200,
      "ĠHotline": 7201,
      "ĠLiÃªm": 7202,
      "ĠIII": 7203,
      "ÃĵÃĴ": 7204,
      "nhÃ£": 7205,
      "ĠcÆ°á»¡ng": 7206,
      "ĠPrem": 7207,
      "váº¡ch": 7208,
      "DT": 7209,
      "ĠMax": 7210,
      "si": 7211,
      "Vá»ĭ": 7212,
      "ĠRob": 7213,
      "Ġthoai": 7214,
      "Ġhoc": 7215,
      "ĠGB": 7216,
      "Ð¼": 7217,
      "ĠCá»Ńu": 7218,
      "Ġå¤": 7219,
      "ÃĸÃĬ": 7220,
      "Ġquá»·": 7221,
      "Ġhá»Ł": 7222,
      "Ġoxy": 7223,
      "avel": 7224,
      "che": 7225,
      "uck": 7226,
      "Ġngoan": 7227,
      "Þ«": 7228,
      "Ġtuyáº¿t": 7229,
      "Ġcáº¯n": 7230,
      "åĪĨ": 7231,
      "amin": 7232,
      "QG": 7233,
      "very": 7234,
      "ĠláºŃu": 7235,
      "ĠVan": 7236,
      "¸ı": 7237,
      "ĠHÃĢNG": 7238,
      "senal": 7239,
      "ele": 7240,
      "Thá»ĭ": 7241,
      "oma": 7242,
      "tis": 7243,
      "èĥ½": 7244,
      "âĪĤ": 7245,
      "ÃĩÃł": 7246,
      "ĠÄĲiá»ģn": 7247,
      "trang": 7248,
      "ï¼ī": 7249,
      "Ġá»ĳp": 7250,
      "Iáº¾T": 7251,
      "ĠhÆ°u": 7252,
      "alt": 7253,
      "huyá»ĩn": 7254,
      "Ġcap": 7255,
      "ĠHÃ£ng": 7256,
      "ĠngoÃ¡i": 7257,
      "Ġ58": 7258,
      "ĠTá»©c": 7259,
      "ĠKÃŃnh": 7260,
      "web": 7261,
      "ÃªÃ¨": 7262,
      "1000": 7263,
      "long": 7264,
      "esign": 7265,
      "ĠTráº¯ng": 7266,
      "ĠmÃ²": 7267,
      "':": 7268,
      "js": 7269,
      "Ġadmin": 7270,
      "ollagen": 7271,
      "ĠÄĲang": 7272,
      "tc": 7273,
      "Ġled": 7274,
      "ĠLáº§n": 7275,
      "Ġgen": 7276,
      "ĠbÆ¡": 7277,
      "ĠÄĳá»ĵi": 7278,
      "Ġop": 7279,
      "ife": 7280,
      "Ġcr": 7281,
      "Chap": 7282,
      "ĴNG": 7283,
      "ĠDO": 7284,
      "ved": 7285,
      "ĠtrÃ¢n": 7286,
      "hÃ¨m": 7287,
      "agon": 7288,
      "ÃĪÃĪ": 7289,
      "ĠVÃ²ng": 7290,
      "ĠChelsea": 7291,
      "bon": 7292,
      "ÃĨÃ³ÃĴÂµ": 7293,
      "ĠSeo": 7294,
      "vÆ°á»Ľng": 7295,
      "Ġváº¡ch": 7296,
      "UB": 7297,
      "QT": 7298,
      "ĠPal": 7299,
      "ÃĮÃĺÃĢ": 7300,
      "den": 7301,
      "ĠViáº¿t": 7302,
      "zu": 7303,
      "ĠgiÃ¡n": 7304,
      "å¤ļ": 7305,
      "å¥½": 7306,
      "ÂºÃĵ": 7307,
      "Ġ^": 7308,
      "Ġ700": 7309,
      "onald": 7310,
      "room": 7311,
      "ken": 7312,
      "Ã¢Ãł": 7313,
      "ori": 7314,
      "Ġchuá»ĳi": 7315,
      "Loáº¡i": 7316,
      "Web": 7317,
      "Ġdáº¯t": 7318,
      "ĠStar": 7319,
      "ĠThoáº¡i": 7320,
      "Ġnoi": 7321,
      "ashi": 7322,
      "Ġgiá»įt": 7323,
      "ĠAm": 7324,
      "ÄĲá»įc": 7325,
      "Ġxoa": 7326,
      "SN": 7327,
      "ĠgÃ¡nh": 7328,
      "shop": 7329,
      "ĠvÆ°á»Ľng": 7330,
      "ĠkhoÃ": 7331,
      "Ġ0917": 7332,
      "font": 7333,
      "ĠLáº¡i": 7334,
      "thg": 7335,
      "hÃ¡m": 7336,
      "ĠÂ¨": 7337,
      "tÃ¹ng": 7338,
      "Ġ68": 7339,
      "ĠÞĲ": 7340,
      "ĠVn": 7341,
      "ĠÄĲÃ´i": 7342,
      "çİ°": 7343,
      "ä¹Ł": 7344,
      "ĠGiáº£m": 7345,
      "ÄĲáº·t": 7346,
      "Iá»ĨU": 7347,
      "æľ¬": 7348,
      "ĠLu": 7349,
      "Ġá»Ľt": 7350,
      "ĠsÃ¢m": 7351,
      "ĠLá»Ļ": 7352,
      "Sao": 7353,
      "æĮ": 7354,
      "etail": 7355,
      "uild": 7356,
      "ĠphÃ´": 7357,
      "san": 7358,
      "ÃĴÃ¥": 7359,
      "ÃĳÃ«": 7360,
      "ĠÃ³c": 7361,
      "cÃ´n": 7362,
      "è¡Į": 7363,
      "130": 7364,
      "sk": 7365,
      "ĠThá»©c": 7366,
      "Î±": 7367,
      "uki": 7368,
      "Previous": 7369,
      "Â£Â¬Â¿": 7370,
      "DS": 7371,
      "ÃĭÃŁ": 7372,
      "Show": 7373,
      "ĠThÃ¡p": 7374,
      "Ġtá»¥ng": 7375,
      "loc": 7376,
      "ÃĪÃĿ": 7377,
      "gram": 7378,
      "gÃ´": 7379,
      "ÃĢNH": 7380,
      "Äģn": 7381,
      "Ġlá»Ļn": 7382,
      "É¨": 7383,
      "ĠMadrid": 7384,
      "Ġkáº½": 7385,
      "ĠParis": 7386,
      "æ±": 7387,
      "ĠTIN": 7388,
      "ington": 7389,
      "uá»³": 7390,
      "ĠBÃŃch": 7391,
      "ĠrÃ´": 7392,
      "ÄĤNG": 7393,
      "ategor": 7394,
      "YT": 7395,
      "ĠÅ": 7396,
      "Ã³Ãĳ": 7397,
      "ĠChia": 7398,
      "ĠsÃºt": 7399,
      "Ġà²ħ": 7400,
      "ãĢĬ": 7401,
      "Ġqui": 7402,
      "Ġreturn": 7403,
      "ĠkhoÃ¡": 7404,
      "ĠmÃ´ng": 7405,
      "fy": 7406,
      "ĠQuáº£": 7407,
      "ĠASEAN": 7408,
      "ĠHong": 7409,
      "thÃ¨m": 7410,
      "ĠtrÄ©": 7411,
      "450": 7412,
      "ÃĭÃĻ": 7413,
      "ĠÂ²": 7414,
      "ÃºÂµÃĦ": 7415,
      "Ġáº¥p": 7416,
      "à½ĸ": 7417,
      "gÃ¢y": 7418,
      "ĠCampuchia": 7419,
      "Ġà²¹": 7420,
      "ĠHiáº¿u": 7421,
      "ÃĭÃį": 7422,
      "ç¬": 7423,
      "ĠPhá»§": 7424,
      "Ġ918": 7425,
      "Ġê": 7426,
      "NÆ°á»Ľc": 7427,
      "Ġkeo": 7428,
      "HoÃłng": 7429,
      "ØĮ": 7430,
      "ĠÃĩÃ": 7431,
      "ãĢĭ": 7432,
      "read": 7433,
      "\\\\": 7434,
      "ĠChá»£": 7435,
      "å°ı": 7436,
      "ĠPhÃŃ": 7437,
      "áº¬P": 7438,
      "ĠHáº¯n": 7439,
      "lines": 7440,
      "ĠFr": 7441,
      "hd": 7442,
      "cri": 7443,
      "ä½ľ": 7444,
      "ĠEmail": 7445,
      "NhÃ¬n": 7446,
      "ĠSen": 7447,
      "ĠÃ¢u": 7448,
      "Ġlá»įt": 7449,
      "hinh": 7450,
      "},": 7451,
      "ÃĲÃį": 7452,
      "2000": 7453,
      "ĠnghiÃªng": 7454,
      "TÃŃnh": 7455,
      "UA": 7456,
      "Cam": 7457,
      "ĠBÄĲS": 7458,
      "ĠBlue": 7459,
      "å¹³åı°": 7460,
      "ĠvÃ³": 7461,
      "Ġ2006": 7462,
      "112": 7463,
      "ĠView": 7464,
      "ÃĴÃ½": 7465,
      "ÃģC": 7466,
      "pool": 7467,
      "ĠrÃł": 7468,
      "ĠSÃ´ng": 7469,
      "cÃ´ng": 7470,
      "ĠRá»ĵi": 7471,
      "Â½Â¹": 7472,
      "çľĭ": 7473,
      "Ġrá»¥ng": 7474,
      "ĠMil": 7475,
      "ĠTag": 7476,
      "Má»įi": 7477,
      "ĠCáºŃu": 7478,
      "ĠViews": 7479,
      "Ġmanh": 7480,
      "Tiá»ĥu": 7481,
      "ĠTÃ´ng": 7482,
      "Ġ0128": 7483,
      "ĠKhÃ³a": 7484,
      "hic": 7485,
      "ÃģÃı": 7486,
      "ĠFord": 7487,
      "Ð´": 7488,
      "«ĺ": 7489,
      "ćĈ": 7490,
      "ĠVáº¡n": 7491,
      "ĠdÆ°a": 7492,
      "Ġháº»": 7493,
      "ĠViá»ħn": 7494,
      "ÃĢÃł": 7495,
      "ĠchÃ¡nh": 7496,
      "Ġtphcm": 7497,
      "index": 7498,
      "à³Ģ": 7499,
      "Ġ0707": 7500,
      "ali": 7501,
      "ĠHoáº¡t": 7502,
      "Ġri": 7503,
      "ĠYork": 7504,
      "é¡": 7505,
      "ĠtÃ¹ng": 7506,
      "Ġmarketing": 7507,
      "å¨±ä¹Ĳ": 7508,
      "add": 7509,
      "Ġláº¡m": 7510,
      "link": 7511,
      "ÃħÃħ": 7512,
      "æĻ": 7513,
      "Ġmá»Ļc": 7514,
      "ĠthÃ¨m": 7515,
      "ĠÄĲá»Ŀi": 7516,
      "Ã¦Åĵ": 7517,
      "ĠChÆ°a": 7518,
      "tp": 7519,
      "ĠBÆ°á»Ľc": 7520,
      "Phá»¥": 7521,
      "ĠlÆ°": 7522,
      "ChÃło": 7523,
      "Ġtap": 7524,
      "Ġtráº¯c": 7525,
      "Thay": 7526,
      "èĪ": 7527,
      "Ġngá»£i": 7528,
      "af": 7529,
      "erry": 7530,
      "ĠBÃ¡ch": 7531,
      "ream": 7532,
      "ĠSÆ¡": 7533,
      "ple": 7534,
      "oot": 7535,
      "css": 7536,
      "¤C": 7537,
      "ÃĬÃĨÃķ": 7538,
      "¡Ãµ": 7539,
      "TÃłi": 7540,
      "Ġquyá»ĥn": 7541,
      "Ġthg": 7542,
      "ĠKhang": 7543,
      "By": 7544,
      "Ġfl": 7545,
      "ÄĲang": 7546,
      "Pro": 7547,
      "Â¯Â·": 7548,
      "Ġhiá»ģn": 7549,
      "KS": 7550,
      "ĠNgÃ£i": 7551,
      "Ġ0912": 7552,
      "sel": 7553,
      "ÃıÃķ": 7554,
      "ĠDis": 7555,
      "168": 7556,
      "Ġapp": 7557,
      "Ġláº·p": 7558,
      "aka": 7559,
      "ĠJohn": 7560,
      "ķn": 7561,
      "ÃĮÃĺÃĢÃĬÃĨÃķ": 7562,
      "tooth": 7563,
      "åĲİ": 7564,
      "á»ĲC": 7565,
      "Â½Â²": 7566,
      "Ġcuá»Ļn": 7567,
      "ĠSte": 7568,
      "Ġ63": 7569,
      "Ġchá»£t": 7570,
      "ÃķÃķ": 7571,
      "ï¸ı": 7572,
      "IÃĬ": 7573,
      "ĠHan": 7574,
      "ngÃ´": 7575,
      "ĦN": 7576,
      "Cháº¥t": 7577,
      "ĠÄĳáº±ng": 7578,
      "èĩª": 7579,
      "phim": 7580,
      "ÃŃÃ»": 7581,
      "BB": 7582,
      "Type": 7583,
      "Ã£Ã®": 7584,
      "amil": 7585,
      "Ġtoa": 7586,
      "Ġlung": 7587,
      "type": 7588,
      "Ġhack": 7589,
      "Ġváº¥t": 7590,
      "ï½": 7591,
      "Ġ57": 7592,
      "lÃłm": 7593,
      "Ġcuá»ĵng": 7594,
      "ÄĲÃ³": 7595,
      "ĠHT": 7596,
      "thong": 7597,
      "ings": 7598,
      "ĠdáºŃp": 7599,
      "Ġkhá»Ń": 7600,
      "ĠWebsite": 7601,
      "Ã¨Ã²": 7602,
      "huáº«n": 7603,
      "ÃįÃģ": 7604,
      "Ġmáº·n": 7605,
      "thuáº«n": 7606,
      "ÂµÃĦÃĬ": 7607,
      "Ùħ": 7608,
      "ĠEuro": 7609,
      "Ġ53": 7610,
      "LÃ½": 7611,
      "ĠMicrosoft": 7612,
      "Ġ0120": 7613,
      "ĠBen": 7614,
      "vÃ¢y": 7615,
      "Ġthuáº«n": 7616,
      "ĠTráº¡ch": 7617,
      "ĠID": 7618,
      "Ġkháº½": 7619,
      "à½¼": 7620,
      "ĠnhÃ£": 7621,
      "Chia": 7622,
      "ĠQuáº§n": 7623,
      "ĠUnited": 7624,
      "ĠKi": 7625,
      "ÄĲi": 7626,
      "Ø·": 7627,
      "ĠlÃ©": 7628,
      "cu": 7629,
      "AV": 7630,
      "Ġcá»įc": 7631,
      "Ġmore": 7632,
      "ĠgÃ¬n": 7633,
      "Ġ0888": 7634,
      "Ġ72": 7635,
      "ĠAll": 7636,
      "Þĸ": 7637,
      "Ġtrue": 7638,
      "py": 7639,
      "ĠAus": 7640,
      "âĪŀ": 7641,
      "ÂªÃĬ": 7642,
      "Ġcáº¯p": 7643,
      "ĠluÃ¢n": 7644,
      "ĠlÆ°á»¡ng": 7645,
      "gáº§n": 7646,
      "Â·Â¸": 7647,
      "Ġdan": 7648,
      "Ġyáº¿t": 7649,
      "ĳÃłnh": 7650,
      "ÄĳÃłnh": 7651,
      "áºłN": 7652,
      "à³Ĭ": 7653,
      "ĠchÃ": 7654,
      "tá»«": 7655,
      "ĠÆ°ng": 7656,
      "ĠSU": 7657,
      "ĳun": 7658,
      "Ġkaraoke": 7659,
      "Äĳun": 7660,
      "Ġdá»ĳi": 7661,
      "GiÃ¡o": 7662,
      "ÉĶ": 7663,
      "ĠvÃ¢y": 7664,
      "istan": 7665,
      "Ġâĺ": 7666,
      "ĠDiá»ĩu": 7667,
      "TB": 7668,
      "àµ": 7669,
      "QuÃ½": 7670,
      "info": 7671,
      "')": 7672,
      "Ġlike": 7673,
      "Ġ038": 7674,
      "cp": 7675,
      "ĠNgá»": 7676,
      "ĠCÄĲ": 7677,
      "DF": 7678,
      "product": 7679,
      "ĠÄĳÃłnh": 7680,
      "Ġtá»ıi": 7681,
      "ĠVá»ĩ": 7682,
      "gá»©a": 7683,
      "ngá»©a": 7684,
      "uan": 7685,
      "Ġlá»©a": 7686,
      "Â£Â¬Â±": 7687,
      "Ġhiáº¿u": 7688,
      "Ġcháº©n": 7689,
      "Ġmáº¡": 7690,
      "ĠHN": 7691,
      "ĠngÃ´": 7692,
      "ĠHome": 7693,
      "ĠDec": 7694,
      "tÃº": 7695,
      "biz": 7696,
      "åģ": 7697,
      "ĠBHXH": 7698,
      "Æ¯á»ļC": 7699,
      "ĠAt": 7700,
      "Ġ59": 7701,
      "LO": 7702,
      "cel": 7703,
      "ĠkhoÄĥn": 7704,
      "hite": 7705,
      "ÃĤÃī": 7706,
      "HS": 7707,
      "Â°Â®": 7708,
      "ĠTrÃ¬": 7709,
      "ĠmÆ°á»£n": 7710,
      "Ġrá»Ļn": 7711,
      "ÂªÃ£ÆĴ": 7712,
      "Ġrá»ĵng": 7713,
      "ĠmÃłi": 7714,
      "áº·m": 7715,
      "btt": 7716,
      "Ġdá»ĳc": 7717,
      "Ġwin": 7718,
      "ĠÄĲÃ¨n": 7719,
      "phong": 7720,
      "ÃīÃ³": 7721,
      "ĠNÃłng": 7722,
      "Ġtrá»«ng": 7723,
      "Ġrá»ī": 7724,
      "title": 7725,
      "word": 7726,
      "ÄĽ": 7727,
      "act": 7728,
      "à®": 7729,
      "Ġtá»±u": 7730,
      "âĢ¦...": 7731,
      "Ġmáº¹o": 7732,
      "ĠLang": 7733,
      "ĠÆ¯": 7734,
      "ĠNote": 7735,
      "MA": 7736,
      "ĠPa": 7737,
      "Ġngá»©a": 7738,
      "ĠÄĲen": 7739,
      "ÃĵÂª": 7740,
      "ĠthÆ°a": 7741,
      "Phi": 7742,
      "ĠlÃ¢": 7743,
      "Ġà²¬": 7744,
      "rc": 7745,
      "ÃĪÃıÃİÂª": 7746,
      "ren": 7747,
      "ĠMá»Ł": 7748,
      "Ġcá»§n": 7749,
      "oli": 7750,
      "Class": 7751,
      "Ġdiá»ĩu": 7752,
      "ĠbÃº": 7753,
      "Ġstyle": 7754,
      "ĠgÃµ": 7755,
      "kk": 7756,
      "æľĪ": 7757,
      "Ġcá»§ng": 7758,
      "ÃįÃ»": 7759,
      "ĠkhoÃ¡i": 7760,
      "Â·Â¶": 7761,
      "Ġab": 7762,
      "åı¯": 7763,
      "Ġmáº¯m": 7764,
      "qua": 7765,
      "verpool": 7766,
      "ĠCháº¿": 7767,
      "ĠMarketing": 7768,
      "ĠLá»±c": 7769,
      "ĠCÃģC": 7770,
      "hoa": 7771,
      "ĠlÃ¢n": 7772,
      "Pl": 7773,
      "ÃģÃĭÃĴ": 7774,
      "Ø¸": 7775,
      "Ġbá»Ļi": 7776,
      "ĠVinhomes": 7777,
      "Ná»¯": 7778,
      "nhá»©c": 7779,
      "Ġgay": 7780,
      "ghts": 7781,
      "Máº¹": 7782,
      "ĠchÃªnh": 7783,
      "ĠgÅ©i": 7784,
      "Sá»Ł": 7785,
      "ĠSA": 7786,
      "æ¸¸": 7787,
      "Ġphoto": 7788,
      "image": 7789,
      "ĠRáº»": 7790,
      "ĠHyundai": 7791,
      "ĠcÃºi": 7792,
      "okia": 7793,
      "Qua": 7794,
      "ĠSi": 7795,
      "nan": 7796,
      "çĤ": 7797,
      "å°±": 7798,
      "tÃ¡t": 7799,
      "ãĢĳãĢĲãĢĤ": 7800,
      "ĠÃľ": 7801,
      "188": 7802,
      "Ã¹c": 7803,
      "ÃĹÂ°": 7804,
      "ToÃłn": 7805,
      "TO": 7806,
      "ĠÄĲáº¯k": 7807,
      "ĠMP": 7808,
      "Ġ090": 7809,
      "ĠxÃ¡m": 7810,
      "áº¢O": 7811,
      "ĠTrÃºc": 7812,
      "á»Ľn": 7813,
      "ĠdÃ£y": 7814,
      "ĠTour": 7815,
      "ĠNhÄ©": 7816,
      "ĠhÃª": 7817,
      "Ġnguyá»ĩt": 7818,
      "ÃīÃ¦": 7819,
      "Ġap": 7820,
      "náº¡i": 7821,
      "Ġ62": 7822,
      "Ã±ÃĦÃª": 7823,
      "ĠchuÃ´ng": 7824,
      "128": 7825,
      "ĠÃ´tÃ´": 7826,
      "ĠTHCS": 7827,
      "ĠNhiá»ĩt": 7828,
      "Vn": 7829,
      "ĠGáº§n": 7830,
      "Ġbá»ī": 7831,
      "Ġnhá»©c": 7832,
      "Ġthoáº£ng": 7833,
      "eter": 7834,
      "ĠÄĲuÃ´i": 7835,
      "Ã§ÃŃ": 7836,
      "Â»Â®": 7837,
      "ÃĴÃĢ": 7838,
      "ç¾İ": 7839,
      "ĠlÆ°á»Ŀng": 7840,
      "ĠTÆ°Æ¡ng": 7841,
      "á»Ľt": 7842,
      "cung": 7843,
      "thuy": 7844,
      "ĠTuáº§n": 7845,
      "º¸": 7846,
      "Â¡Â£Â¶": 7847,
      "Ġchá»Ń": 7848,
      "ĠtÃº": 7849,
      "BÃŃ": 7850,
      "HO": 7851,
      "ĠÂ¶": 7852,
      "ĠbÄĥn": 7853,
      "ĳan": 7854,
      "Äĳan": 7855,
      "ĠTÃ¡m": 7856,
      "ćą": 7857,
      "æŃĮ": 7858,
      "ĠkiÃª": 7859,
      "ä¹Ī": 7860,
      "Ġnáº¡i": 7861,
      "ÃĳÃ©": 7862,
      "Ġká»ī": 7863,
      "PhÃ¢n": 7864,
      "Ġháº»m": 7865,
      "DA": 7866,
      "æĽ²": 7867,
      "ĠMC": 7868,
      "ĠMS": 7869,
      "ĠPhÃ¹": 7870,
      "ÂµÃį": 7871,
      "á»ĩm": 7872,
      "ĠâĪĳ": 7873,
      "ÃĤÃŀÃĭ": 7874,
      "ĠSil": 7875,
      "åĿĢ": 7876,
      "Ġpar": 7877,
      "ïīŁ": 7878,
      "æĸĩ": 7879,
      "ĠVu": 7880,
      "ä¸»": 7881,
      "119": 7882,
      "ĠShi": 7883,
      "edes": 7884,
      "you": 7885,
      "ĠtrÆ¡": 7886,
      "æĥħ": 7887,
      "Â¡Â¤": 7888,
      "ĠNgÅ©": 7889,
      "ĠxÃł": 7890,
      "ĠChamp": 7891,
      "ÃĦÃĳ": 7892,
      "Tráº§n": 7893,
      "ĠkhÃ©p": 7894,
      "ĠBÃ¡t": 7895,
      "ĠLink": 7896,
      "2005": 7897,
      "çŃ": 7898,
      "ĠHÃłm": 7899,
      "hoo": 7900,
      "à³ĭ": 7901,
      "īa": 7902,
      "ĠÂ§": 7903,
      "Õ¸": 7904,
      "Ġ2005": 7905,
      "Ġ69": 7906,
      "ĠTá»©": 7907,
      "ÃīÃ½": 7908,
      "ĠxÃ¡": 7909,
      "Ġhoáº¡i": 7910,
      "ĠHá»ıa": 7911,
      "ĠDáº¡": 7912,
      "light": 7913,
      "ĠJul": 7914,
      "Ġwifi": 7915,
      "Ġphanh": 7916,
      "Ġnghiá»ĩn": 7917,
      "ĠhÆ¡": 7918,
      "UYÃĬN": 7919,
      "ĠTrÆ°ng": 7920,
      "350": 7921,
      "thon": 7922,
      "Ñĭ": 7923,
      "Ġchuy": 7924,
      "ĠxÃŃch": 7925,
      "ÃīÃĭ": 7926,
      "ĠDai": 7927,
      "Báº¯t": 7928,
      "ĠSÃ³c": 7929,
      "ÃĸÃº": 7930,
      "îģ": 7931,
      "789": 7932,
      "MÃ´": 7933,
      "ĠrÃ¡p": 7934,
      "Â°Â£Â¬": 7935,
      "Di": 7936,
      "eno": 7937,
      "ĠGarden": 7938,
      "ane": 7939,
      "ĠBÃ¡nh": 7940,
      "ĠSang": 7941,
      "ĠHuá»ĩ": 7942,
      "ĠPhá»¥c": 7943,
      "åħ¨": 7944,
      "ÃĨÃ¬": 7945,
      "Ġ|--": 7946,
      "Ġ900": 7947,
      "ĠQuá": 7948,
      "TN": 7949,
      "ÃĶÃ²": 7950,
      "luc": 7951,
      "ºª": 7952,
      "test": 7953,
      "ÃĽÅĴ": 7954,
      "Ê¤": 7955,
      "!!!!": 7956,
      "è¯´": 7957,
      "ates": 7958,
      "åħ¬": 7959,
      "Ġgr": 7960,
      "Ġlui": 7961,
      "ĠArsenal": 7962,
      "ķng": 7963,
      "à½¢": 7964,
      "Ġcomment": 7965,
      "***": 7966,
      "tralia": 7967,
      "ĠláºŃt": 7968,
      "Nghi": 7969,
      "ĠCÆ": 7970,
      "ÃĽÃĢ": 7971,
      "ÑĮ": 7972,
      "Ġwap": 7973,
      "ical": 7974,
      "Ġmobile": 7975,
      "Phong": 7976,
      "ĠIntel": 7977,
      "ÃĭÃª": 7978,
      "Báº¥t": 7979,
      "ĠVá»Ģ": 7980,
      "ÃľÃį": 7981,
      "¡nh": 7982,
      "ĠÅĵ": 7983,
      "118": 7984,
      "Ġ=>": 7985,
      "ÅĪ": 7986,
      "ĠsÆ°ng": 7987,
      "âĪĴ": 7988,
      "ĠVáº¥p": 7989,
      "ÂºÂº": 7990,
      "ĠÄĲá»Ļc": 7991,
      "ĠRed": 7992,
      "BÃ¡c": 7993,
      "ney": 7994,
      "Ġruá»Ļng": 7995,
      "ĠCÆ°": 7996,
      "ÃĸÂµ": 7997,
      "ÃŃÃĤÃŀÃĭ": 7998,
      "táº¡": 7999,
      "irst": 8000,
      "ĠPháº£n": 8001,
      "Quáº£ng": 8002,
      "ĠchÃ©m": 8003,
      "Ã°Ã¥": 8004,
      "ters": 8005,
      "ĠIran": 8006,
      "tab": 8007,
      "Ġhoi": 8008,
      "DC": 8009,
      "ĠHang": 8010,
      "ye": 8011,
      "ĠGiÃ¡p": 8012,
      "Ã°Ã¨": 8013,
      "witter": 8014,
      "ĠSÃ¢n": 8015,
      "ĠNguyen": 8016,
      "ĠPhiÃªn": 8017,
      "ĠNháºŃp": 8018,
      "file": 8019,
      "ÄĲá»«ng": 8020,
      "Ġcá»ĵn": 8021,
      "Ġkiáº¿p": 8022,
      "ĠxÃło": 8023,
      "dex": 8024,
      "BÃłn": 8025,
      "ics": 8026,
      "ĠSmart": 8027,
      "ÃİÃ¥": 8028,
      "ĠâĢĻ": 8029,
      "210": 8030,
      "icon": 8031,
      "\";": 8032,
      "âĢ¦..": 8033,
      "æ³¨": 8034,
      "Táº£i": 8035,
      "iden": 8036,
      "Â¢ÃĹ": 8037,
      "Há»į": 8038,
      "IG": 8039,
      "Chá»įn": 8040,
      "ÃĵÃħ": 8041,
      "Ġcode": 8042,
      "ĠÄĳáº¯n": 8043,
      "ĠGiÃªsu": 8044,
      "Ġ128": 8045,
      "}}": 8046,
      "({": 8047,
      "ĠNgá»¯": 8048,
      "ĠTiáº¿t": 8049,
      "ĠSG": 8050,
      "vis": 8051,
      "ÃĺÃıÂµ": 8052,
      "âĢļÂ¢": 8053,
      "Ġgirl": 8054,
      "125": 8055,
      "ĠMang": 8056,
      "é«ĺ": 8057,
      "ĠthiÃª": 8058,
      "ç«Ļ": 8059,
      "ĠSky": 8060,
      "náº£y": 8061,
      "Ġkhoáº£nh": 8062,
      "Ġ98": 8063,
      "Ġhiáº¿p": 8064,
      "ĠAC": 8065,
      "TháºŃt": 8066,
      "ĠÄĲÃłm": 8067,
      "æĪ·": 8068,
      "aw": 8069,
      "ÄĤM": 8070,
      "ÃĩÃ¡": 8071,
      "äºĭ": 8072,
      "++": 8073,
      "cá»": 8074,
      "AB": 8075,
      "ĠCu": 8076,
      "Li": 8077,
      "Ġmac": 8078,
      "Ġout": 8079,
      "ÃĶÃĨ": 8080,
      "ĠHoÃł": 8081,
      "huá»·": 8082,
      "ÃĦÃĲ": 8083,
      "ĠÄĳan": 8084,
      "bal": 8085,
      "ĠmÃºa": 8086,
      "dai": 8087,
      "vil": 8088,
      "Ġthá»ĭn": 8089,
      "äºļ": 8090,
      "ĠLU": 8091,
      "ĠÞĮ": 8092,
      "Ġthá»ĭnh": 8093,
      "éĤ": 8094,
      "âľħ": 8095,
      "Ġ220": 8096,
      "ĠBiá»ĩt": 8097,
      "Lá»Ŀi": 8098,
      "åŃ¦": 8099,
      "Ġtáº¡": 8100,
      "Ġ--": 8101,
      "Ã¬Ã": 8102,
      "ľI": 8103,
      "Ġdc": 8104,
      "ÃıÃ¬": 8105,
      "ĳÃŃnh": 8106,
      "ÄĳÃŃnh": 8107,
      "Ã¡Ãµ": 8108,
      "é¦": 8109,
      "âĹĬ": 8110,
      "inc": 8111,
      "Ġnáº£y": 8112,
      "ÃĲÃĤÃİÃħ": 8113,
      "thuá»·": 8114,
      "onaldo": 8115,
      "round": 8116,
      "ÃīÃ±": 8117,
      "ĠMr": 8118,
      "ĠNS": 8119,
      "éĻħ": 8120,
      "ĠLá»Ľp": 8121,
      "ĠBá»ĳ": 8122,
      "ĠâĢº": 8123,
      "HP": 8124,
      "Ġ130": 8125,
      "Huyá»ĩn": 8126,
      "ĠOb": 8127,
      "ÃīÃĦÃľ": 8128,
      "gÆ°ng": 8129,
      "ngÆ°ng": 8130,
      "ĠPu": 8131,
      "à²¬": 8132,
      "aomi": 8133,
      "ÂºÃĭ": 8134,
      "Diá»ħn": 8135,
      "ĠSta": 8136,
      "Ġ89": 8137,
      "ĠTRONG": 8138,
      "iki": 8139,
      "ben": 8140,
      "ĠViÃª": 8141,
      "å§": 8142,
      "ĠÄĲiá»ĥn": 8143,
      "ader": 8144,
      "à²£": 8145,
      "Ġthuá»·": 8146,
      "./.": 8147,
      "Ã«Ã®": 8148,
      "å¿ĥ": 8149,
      "Â»Â¥": 8150,
      "ĠLiá»ĩu": 8151,
      "Ġláº¥n": 8152,
      "color": 8153,
      "Ġgas": 8154,
      "OO": 8155,
      "ĠÄĳáº¯ng": 8156,
      "ĠÆ¯u": 8157,
      "ĠPlay": 8158,
      "ná»ĳt": 8159,
      "ĠÄĳiá»ģn": 8160,
      "ĠIN": 8161,
      "Ġ180": 8162,
      "omo": 8163,
      "Ġráº¡ng": 8164,
      "Ġtru": 8165,
      "Ġ67": 8166,
      "Quá»ĳc": 8167,
      "sm": 8168,
      "ĠmuÃ´n": 8169,
      "ÃĴNG": 8170,
      "Cá»¥": 8171,
      "HÆ¡n": 8172,
      "ĠÄĳÃŃnh": 8173,
      "ĠQuÃ¡": 8174,
      "ĠâĢ¦.": 8175,
      "Ġbuá»ĵng": 8176,
      "................................................................": 8177,
      "224": 8178,
      "ning": 8179,
      "ĳÆ": 8180,
      "ĠngÆ°ng": 8181,
      "ĠsÃ©t": 8182,
      "ĠÑģ": 8183,
      "Ġ86": 8184,
      "ĠÃĽ": 8185,
      "mod": 8186,
      "ĠLand": 8187,
      "ola": 8188,
      "náº§y": 8189,
      "ÄĳÆ": 8190,
      "äºİ": 8191,
      "âĢļÂ·": 8192,
      "Ġdá»Ł": 8193,
      "çĻ»": 8194,
      "ÃĢÃ®": 8195,
      "Ġnáº§y": 8196,
      "ĠTáº¡p": 8197,
      "Ġ365": 8198,
      "Ġtá»ĭn": 8199,
      "Ġandroid": 8200,
      "Ã¤Ã": 8201,
      "ÌĽ": 8202,
      "vice": 8203,
      "ĠMÃłn": 8204,
      "ĠBu": 8205,
      "zy": 8206,
      "VI": 8207,
      "ĠTruy": 8208,
      "ĠSon": 8209,
      "ĠKhá»Łi": 8210,
      "Â¡ÂŃ": 8211,
      "Ġtá»ĭnh": 8212,
      "Ġyáº¿n": 8213,
      "ĠiOS": 8214,
      "ami": 8215,
      "ercedes": 8216,
      "ÃĴÃģ": 8217,
      "Ġnghá»ĭch": 8218,
      "áº¿m": 8219,
      "Ġclick": 8220,
      "QuáºŃn": 8221,
      "ĠkiÃªng": 8222,
      "ĠEd": 8223,
      "Ġ77": 8224,
      "ngÃ¢y": 8225,
      "Ġdoc": 8226,
      "ÆłN": 8227,
      "ĠDuyÃªn": 8228,
      "Ġná»ĳt": 8229,
      "ĀĀĀĀĀĀĀĀĀĀĀĀĀĀĀĀĀĀĀĀĀĀĀĀĀĀĀĀĀĀĀĀĀĀĀĀĀĀĀĀĀĀĀĀĀĀĀĀĀĀĀĀĀĀĀĀĀĀĀĀĀĀĀĀĀĀĀĀĀĀĀĀĀĀĀĀĀĀĀĀĀĀĀĀĀĀĀĀĀĀĀĀĀĀĀĀĀĀĀĀĀĀĀĀĀĀĀĀĀĀĀĀĀĀĀĀĀĀĀĀĀĀĀĀĀĀĀĀĀĀĀĀĀĀĀĀĀĀĀĀĀĀĀĀĀĀĀĀĀĀĀĀĀĀĀĀĀĀĀĀĀĀĀĀĀĀĀĀĀĀĀĀĀĀĀĀĀĀĀĀĀĀĀĀĀĀĀĀĀĀĀĀĀĀĀĀĀĀĀĀĀĀĀĀĀĀĀĀĀĀĀĀĀĀĀĀĀĀĀĀĀĀĀĀĀĀĀĀĀĀĀĀĀĀĀĀĀĀĀĀĀĀĀĀĀĀĀĀĀĀĀĀĀĀĀĀ": 8230,
      "ĠSex": 8231,
      "çĲĥ": 8232,
      "ĠChÃº": 8233,
      "ĠBÃģN": 8234,
      "ĠÄĳun": 8235,
      "Ġnhá»Ł": 8236,
      "],": 8237,
      "ĠvÃ²i": 8238,
      "ena": 8239,
      "ĠHáº§u": 8240,
      "ĠCháº¯c": 8241,
      "Ġdáº»o": 8242,
      "VB": 8243,
      "ĠiPad": 8244,
      "ĠrÃ¨m": 8245,
      "order": 8246,
      "ÇĴ": 8247,
      "ĠQuá»¹": 8248,
      "ĠPost": 8249,
      "114": 8250,
      "ĠNá»ĺI": 8251,
      "ĠShow": 8252,
      "Ġxen": 8253,
      "ĠÄĳáº¿m": 8254,
      "ĠÂ¡": 8255,
      "Ġeo": 8256,
      "ä¸ī": 8257,
      "ĠkÃ©p": 8258,
      "Ġmá»īm": 8259,
      "ĠÂ¬": 8260,
      "ĠCap": 8261,
      "ĠmÃ¢u": 8262,
      "ĠÄĳÆ": 8263,
      "ÃĬÃĵÃĨÂµ": 8264,
      "lÃ": 8265,
      "Ġà²µ": 8266,
      "ĠTriá»ĥn": 8267,
      "hide": 8268,
      "ĠÄĲá»ı": 8269,
      "ç»ı": 8270,
      "åĬ¨": 8271,
      "ĠST": 8272,
      "Ġ076": 8273,
      "ĠAT": 8274,
      "ĠbÃ³p": 8275,
      "iti": 8276,
      "name": 8277,
      "éŁ": 8278,
      "Ġarticle": 8279,
      "ĠhÃ¡i": 8280,
      "ĠTÃ¹y": 8281,
      "$('": 8282,
      "ÃĸÃķ": 8283,
      "Ġvá»ĭt": 8284,
      "ÄĲá»ĵ": 8285,
      "Chuyá»ĩn": 8286,
      "łÃ²": 8287,
      "pw": 8288,
      "ĠTháºŃm": 8289,
      "ĠlÆ°á»Ľt": 8290,
      "chor": 8291,
      "ĠResort": 8292,
      "ï¿½Â®": 8293,
      "Ġst": 8294,
      "ĠTri": 8295,
      "ĠSuper": 8296,
      "Ġthiá»ģn": 8297,
      "FC": 8298,
      "ĠLÃ´": 8299,
      "nhang": 8300,
      "è°": 8301,
      "DI": 8302,
      "105": 8303,
      "ĠãĢĳãĢĲ": 8304,
      "ĠKÃ´ng": 8305,
      "ÛĴ": 8306,
      "Ġlon": 8307,
      "Ġchip": 8308,
      "Review": 8309,
      "èĬ": 8310,
      "nÃ´n": 8311,
      "ĠXW": 8312,
      "ĠVTV": 8313,
      "ĠLee": 8314,
      "ĠcÃ²": 8315,
      "ĠGreen": 8316,
      "å¾Ĺ": 8317,
      "MI": 8318,
      "ĠLÃ£o": 8319,
      "ĠâĢĭ": 8320,
      "Ġchá»Ńi": 8321,
      "ÃĦÃ¾": 8322,
      "Ġráº¯c": 8323,
      "ora": 8324,
      "ĠgÃ¡c": 8325,
      "agra": 8326,
      "ĠCas": 8327,
      "khi": 8328,
      "444": 8329,
      "Ġhd": 8330,
      ".)": 8331,
      "ĠÄĳá»¥ng": 8332,
      "360": 8333,
      "Ġtaxi": 8334,
      "ĠComp": 8335,
      "ĠGrand": 8336,
      "ĠKhÃŃ": 8337,
      "ĠngÃ¢y": 8338,
      "ĠJe": 8339,
      "Ġ0986": 8340,
      "ĠDan": 8341,
      "ĠCA": 8342,
      "sy": 8343,
      "ĠHiá»ĥu": 8344,
      "ĠÄĳá»©t": 8345,
      "Ġ360": 8346,
      "ĠÃªÃ": 8347,
      "ĠBus": 8348,
      "Ġ0909": 8349,
      "ĠSam": 8350,
      "UL": 8351,
      "mua": 8352,
      "é£": 8353,
      "115": 8354,
      "Ġdáº¡i": 8355,
      "ĠKem": 8356,
      "ná»©t": 8357,
      "åĢ": 8358,
      "ĠUp": 8359,
      "ĠnÃ´n": 8360,
      "Ġins": 8361,
      "Ġtrá»ĩt": 8362,
      "Ġrang": 8363,
      "ĠchÃ¡o": 8364,
      "ĠChá»©c": 8365,
      "ject": 8366,
      "012": 8367,
      "ĠÄĲá»ĳng": 8368,
      "ä¸ļ": 8369,
      "ĠÄĲÃªm": 8370,
      "èī": 8371,
      "phi": 8372,
      "ĠMV": 8373,
      "thÃ¡m": 8374,
      "ĠÄĲÃºng": 8375,
      "ãĢĮ": 8376,
      "ĠKHÃĶNG": 8377,
      "èģ": 8378,
      "ĠPower": 8379,
      "ĠvÃ³c": 8380,
      "Ġåħ": 8381,
      "Ġ(+": 8382,
      "á»ĳp": 8383,
      "Ġsuá»ĳi": 8384,
      "áº¿c": 8385,
      "Ġïĥ": 8386,
      "nÆ°Æ¡": 8387,
      "Ġ79": 8388,
      "ĠTÆ¯": 8389,
      "ĠVui": 8390,
      "kra": 8391,
      "engt": 8392,
      "ĠNhÃ³m": 8393,
      "2004": 8394,
      "Ġbáº¿": 8395,
      "ĠTá»§": 8396,
      "ÃĴÂªÃĩÃ³": 8397,
      "razil": 8398,
      "ÃĩÃ«": 8399,
      "ĠRá»ĭa": 8400,
      "apa": 8401,
      "ĠGiÃºp": 8402,
      "ĠhÃ²n": 8403,
      "elo": 8404,
      "ÃĴÃ¦": 8405,
      "Ġná»©t": 8406,
      "ÃĲÃ¸": 8407,
      "Nghe": 8408,
      "OV": 8409,
      "ĠVo": 8410,
      "mark": 8411,
      "ĠnÆ°Æ¡": 8412,
      "ĠCB": 8413,
      "Â»Â¿": 8414,
      "Ġnhang": 8415,
      "ãĢį": 8416,
      "ĠBV": 8417,
      "ĠAirlines": 8418,
      "ĠLiverpool": 8419,
      "âĢ¬": 8420,
      "ĠMess": 8421,
      "dan": 8422,
      "ÄĲÃºng": 8423,
      "ĠKhÃª": 8424,
      "Ġiphone": 8425,
      "ÃĢÃ«": 8426,
      "ĠKháº£i": 8427,
      "CÃ": 8428,
      "ÃįÃĬÃĩ": 8429,
      "osc": 8430,
      "Ġ078": 8431,
      "ĠXU": 8432,
      "Ġcach": 8433,
      "ĠJan": 8434,
      "Bá»Łi": 8435,
      "false": 8436,
      "âĢļÂ¿": 8437,
      "mÃ¡y": 8438,
      "tton": 8439,
      "ĠthÃ¡m": 8440,
      "ĠlÃ©o": 8441,
      "ÃĸÃĺÃĴÂª": 8442,
      "Ġmat": 8443,
      "Vietnam": 8444,
      "Ġhino": 8445,
      "ĠBÃ¢y": 8446,
      "ĠPS": 8447,
      "102": 8448,
      "ĠChiáº¿c": 8449,
      "áº¿ch": 8450,
      "oss": 8451,
      "ĠÂ¯": 8452,
      "Ġvá»Ĺ": 8453,
      "ĠKong": 8454,
      "HT": 8455,
      "orts": 8456,
      "aby": 8457,
      "ĠKiá»ĩt": 8458,
      "Cá»Ńa": 8459,
      "own": 8460,
      "116": 8461,
      "PC": 8462,
      "ãĢĳãĢĲãĢĤãĢĳãĢĲ": 8463,
      "tainer": 8464,
      "ĠÃ¸": 8465,
      "ĠWin": 8466,
      "Ġval": 8467,
      "xin": 8468,
      "ĳinh": 8469,
      "Äĳinh": 8470,
      "ĠThuyáº¿t": 8471,
      "ĠTrÄĥng": 8472,
      "Cuá»ĳi": 8473,
      "ĠMáº¡c": 8474,
      "hac": 8475,
      "ÃĶÃ¸": 8476,
      "éĶĽ": 8477,
      "ĠNGHIá»Ĩ": 8478,
      "Äĳáº¡": 8479,
      "Â»Â¨": 8480,
      "ÃģÃĨ": 8481,
      "Ġviá»ģn": 8482,
      "ĠVina": 8483,
      "ĠâĹ": 8484,
      "ĠVit": 8485,
      "ĠPer": 8486,
      "Ã©Ãĸ": 8487,
      "320": 8488,
      "bu": 8489,
      "ĠNgÃ´n": 8490,
      "886": 8491,
      "225": 8492,
      "Ġsec": 8493,
      "gá»Ļt": 8494,
      "ÂºÃ¬": 8495,
      "ĠTáº·ng": 8496,
      "Â¿Â·": 8497,
      "104": 8498,
      "Ġdá»ĩt": 8499,
      "Ã¡Âº": 8500,
      "Ġkiá»ĩt": 8501,
      "ĠBáº¿p": 8502,
      "Ã¸n": 8503,
      "Ġ350": 8504,
      "ÃĻËĨ": 8505,
      "Ġkhá»ĳng": 8506,
      "ngá»Ļt": 8507,
      "ĠPin": 8508,
      "Ġhave": 8509,
      "nao": 8510,
      ".[": 8511,
      "Â¡Â£Â´": 8512,
      "GI": 8513,
      "combank": 8514,
      "Ġmuá»Ļi": 8515,
      "hÃŃnh": 8516,
      "ube": 8517,
      "Ġall": 8518,
      "ado": 8519,
      "MW": 8520,
      "Ġngá»Ļt": 8521,
      "Ġdá»ĵn": 8522,
      "ĠmÆ°á»£t": 8523,
      ">>>": 8524,
      "náº¿n": 8525,
      "ĠBy": 8526,
      "ĠSho": 8527,
      "gis": 8528,
      "iá»ģng": 8529,
      "ÄĲÃ": 8530,
      "ĠÄĳá»ĳ": 8531,
      "MÃłu": 8532,
      "pn": 8533,
      "EW": 8534,
      "ĠÄĳÃ²n": 8535,
      "á´": 8536,
      "ĠKy": 8537,
      "ĠChá»ĳng": 8538,
      "ength": 8539,
      "ĠCÆ°Æ¡ng": 8540,
      "ÃĸÃŀ": 8541,
      "NÃªn": 8542,
      "à³įâĢĮ": 8543,
      "åīį": 8544,
      "Ġlanh": 8545,
      "edi": 8546,
      "ĠStu": 8547,
      "ĠgÃ£y": 8548,
      "ĠPi": 8549,
      "áº©u": 8550,
      "Âªn": 8551,
      "tine": 8552,
      "ĠCÃĵ": 8553,
      "å°¼": 8554,
      "ĠcÃµi": 8555,
      "ÃīÃ¹": 8556,
      "III": 8557,
      "ĠÃło": 8558,
      "XW": 8559,
      "On": 8560,
      "ĠsÃºc": 8561,
      "ÃĲÃ»": 8562,
      "MC": 8563,
      "ĠÃĩÃ¡": 8564,
      "ishi": 8565,
      "Ġphan": 8566,
      "Ġnáº¿n": 8567,
      "ĠBiáº¿t": 8568,
      "bur": 8569,
      "ĠxÃ¬": 8570,
      "ĠdÅ©ng": 8571,
      "dung": 8572,
      "234": 8573,
      "ÜĲ": 8574,
      "á»ĳm": 8575,
      "bd": 8576,
      "éĥ": 8577,
      "Lá»ĭch": 8578,
      "Çİn": 8579,
      "à½´": 8580,
      "ĠMat": 8581,
      "trung": 8582,
      "ĠKháº£": 8583,
      "Ġhá»¥t": 8584,
      "Ġcáº¡n": 8585,
      "chá»": 8586,
      "éĩĮ": 8587,
      "????????": 8588,
      "Ġsize": 8589,
      "ÂºÃļ": 8590,
      "cá»§a": 8591,
      "Ä¨": 8592,
      "Uá»": 8593,
      "ĠSáº¢N": 8594,
      "ĠNhiÃªn": 8595,
      "ÃĲÃİ": 8596,
      "Da": 8597,
      "any": 8598,
      "ï¿ł": 8599,
      "ÃĤÃ¤": 8600,
      "YÃªu": 8601,
      "Tuyá»ĥn": 8602,
      "ĠDÃ²ng": 8603,
      "108": 8604,
      "ĠMuá»ĳn": 8605,
      "them": 8606,
      "atur": 8607,
      "ĠPhÃ¹ng": 8608,
      "ĠÄĲá»Ĭ": 8609,
      "Ã³p": 8610,
      "åĽ½éĻħ": 8611,
      "ĠLiÃªu": 8612,
      "ÃĭÃķ": 8613,
      "Ġprotein": 8614,
      "Bao": 8615,
      "Ġdá»Ļi": 8616,
      "ĠvÃ¡n": 8617,
      "tÃ³m": 8618,
      "ÃıÃĤÃĶÃĺ": 8619,
      "ÃģNG": 8620,
      "240": 8621,
      "ev": 8622,
      "QH": 8623,
      "106": 8624,
      "ĠHOT": 8625,
      "Ġxao": 8626,
      "Ġuá»ĳn": 8627,
      "LE": 8628,
      "Ġráº¡p": 8629,
      "ÂµÃĩ": 8630,
      "ÄŁ": 8631,
      "ĠLaptop": 8632,
      "ÃģO": 8633,
      "wn": 8634,
      "ĠRAM": 8635,
      "][/": 8636,
      "ĠËĺ": 8637,
      ")-": 8638,
      "é©": 8639,
      "ĠthÃ¬a": 8640,
      "tics": 8641,
      "usic": 8642,
      "ĠÃ¹": 8643,
      "ĠNokia": 8644,
      "Thá»ĥ": 8645,
      "990": 8646,
      "ĠNhÃ£": 8647,
      "Ã¥Ã±": 8648,
      "sinh": 8649,
      "Ã©c": 8650,
      "æ£": 8651,
      "ĠHá»Ļ": 8652,
      "è§Ĩ": 8653,
      "à²ľ": 8654,
      "Chapter": 8655,
      "ĠPe": 8656,
      "ï¿½ï¿½ï¿½ï¿½ï¿½ï¿½ï¿½ï¿½ï¿½": 8657,
      "æı": 8658,
      "èĭ": 8659,
      "Ńn": 8660,
      "ĠChÄĥm": 8661,
      "Ġbá»ĵ": 8662,
      "çĿ": 8663,
      "lan": 8664,
      "ĠÄĳinh": 8665,
      "Î¿": 8666,
      "ÃĳÃĶ": 8667,
      "Ġdis": 8668,
      "Ġspa": 8669,
      "ci": 8670,
      "ĠKo": 8671,
      "Ġluá»ĵng": 8672,
      "Game": 8673,
      "ÃĪÃĶ": 8674,
      "Ġï¿½ï¿½ï¿½ï¿½ï¿½ï¿½ï¿½ï¿½": 8675,
      "ÃºÃĨ": 8676,
      "Ġtoan": 8677,
      "ĠchiÃªm": 8678,
      "nhÃ¬": 8679,
      "Ġloan": 8680,
      "nÆ": 8681,
      "ĠGames": 8682,
      "Â»Ã·": 8683,
      "ÃĮÃĵÃ½": 8684,
      "ĠTrá»±c": 8685,
      "ĠMÃģY": 8686,
      "Ìģ,": 8687,
      "Ã¸ÃĴ": 8688,
      "Ġ78": 8689,
      "ets": 8690,
      "tÆ°á»Ľi": 8691,
      "PA": 8692,
      "ĠAustralia": 8693,
      "Ġ76": 8694,
      "cldivContentDoc": 8695,
      "ĠWil": 8696,
      "368": 8697,
      "cong": 8698,
      "tÃ²": 8699,
      "ĠNhung": 8700,
      "nn": 8701,
      "ĠKháº¯c": 8702,
      "ĠRiÃªng": 8703,
      "ĠrÃ¢": 8704,
      "Ġdam": 8705,
      "ĠCD": 8706,
      "Ġphe": 8707,
      "DÆ°á»Ľi": 8708,
      "cao": 8709,
      "ĠEU": 8710,
      "ĠchÃ¬a": 8711,
      "oney": 8712,
      "ĠnhÃ¬": 8713,
      "º¥p": 8714,
      "XX": 8715,
      "ĠPha": 8716,
      "jo": 8717,
      "Ġag": 8718,
      "ĠhÆ°á»Ľc": 8719,
      "Ġcor": 8720,
      "ĠGiá»": 8721,
      "ĠMÃ³n": 8722,
      "ield": 8723,
      "ĠÃĤn": 8724,
      "ĠhÆ°ng": 8725,
      "Ġnhá»ĭn": 8726,
      "ĠhoÃłnh": 8727,
      "ĠbÃ¡ch": 8728,
      "ĠTá»ĳi": 8729,
      "apan": 8730,
      "ÃĤM": 8731,
      "ĠThao": 8732,
      "ĠChampions": 8733,
      "ĠAngel": 8734,
      "ĠSpa": 8735,
      "ĠcÃłnh": 8736,
      "ĠnÆ": 8737,
      "Ad": 8738,
      "ÃĸÃĥ": 8739,
      "Ġâľ": 8740,
      "verside": 8741,
      "VÃŃ": 8742,
      "103": 8743,
      "hÃ¡y": 8744,
      "ThÃ¡i": 8745,
      "çĲĨ": 8746,
      "ĠLuáºŃn": 8747,
      "ÃįÃ¥": 8748,
      "çķ": 8749,
      "dro": 8750,
      "éĥ½": 8751,
      "ikes": 8752,
      "Ar": 8753,
      "ĠThÃ¹y": 8754,
      "ĠtÆ°á»Ľi": 8755,
      "Ġxá»ĭt": 8756,
      "Ġthá»īnh": 8757,
      "ĠtrÃ¹m": 8758,
      "Bank": 8759,
      "Ġlá»ģ": 8760,
      "ÃķÃ¹": 8761,
      "ĠtrÃ¢u": 8762,
      "ÃĬÃ´": 8763,
      "wr": 8764,
      "Quan": 8765,
      "ĠCHÃįNH": 8766,
      "nguyen": 8767,
      "ĠÄĳáº¡m": 8768,
      "668": 8769,
      "QL": 8770,
      "Ã¾ÃİÃ±": 8771,
      "ĠHá»ıi": 8772,
      "Ð±": 8773,
      "Ġsá»Ŀ": 8774,
      "Ġ320": 8775,
      "ĠNhuáºŃn": 8776,
      "minh": 8777,
      "ixel": 8778,
      "ÃįÃ¹": 8779,
      "ĠCOVID": 8780,
      "ĠbÄĥ": 8781,
      "Ġ61": 8782,
      "520": 8783,
      "pha": 8784,
      "Ġwindow": 8785,
      "ĠNet": 8786,
      "ÃĢÃ½": 8787,
      "ĠHiáº¿n": 8788,
      "Ġhá»ĳ": 8789,
      "æ³ķ": 8790,
      "háº·t": 8791,
      "Vá»¥": 8792,
      "nÃ¨": 8793,
      "ĠGen": 8794,
      "ĠchÃ¢": 8795,
      "Ġtriáº¿t": 8796,
      "750": 8797,
      "ÙĪ": 8798,
      "Ġduoc": 8799,
      "¤NG": 8800,
      "ëĭ": 8801,
      "DL": 8802,
      "230": 8803,
      "Ã«Ã¥": 8804,
      "Sinh": 8805,
      "ÃĬÃĩÃĴ": 8806,
      "ÃĶÃ§": 8807,
      "ï¬Ĥ": 8808,
      "ected": 8809,
      "Ġcá»Łi": 8810,
      "á»Ľc": 8811,
      "Ráº¥t": 8812,
      "ĠxÃ´i": 8813,
      "qq": 8814,
      "phá»": 8815,
      "cam": 8816,
      "Ġ96": 8817,
      "Ġml": 8818,
      "180": 8819,
      "Ġoan": 8820,
      "âĢļÂ¬": 8821,
      "Ġ!=": 8822,
      "ĠGiai": 8823,
      "price": 8824,
      "ĠtÃ³m": 8825,
      "Ġchat": 8826,
      "iano": 8827,
      "jax": 8828,
      "Ćą": 8829,
      "ĠMá»©c": 8830,
      "å£": 8831,
      "Ġlá»į": 8832,
      "Al": 8833,
      "ĳÄĥ": 8834,
      "Ġ0978": 8835,
      "ÂµÃļÃĴ": 8836,
      "ÄĳÄĥ": 8837,
      "Ġgáº¯t": 8838,
      "nd": 8839,
      "ĠChuáº©n": 8840,
      "ĠtÃł": 8841,
      "ĠtÃ²": 8842,
      "Tá»§": 8843,
      "Ġ2003": 8844,
      "çģ": 8845,
      "Ġvá»Ł": 8846,
      "ĠTra": 8847,
      "ful": 8848,
      "Õ¶": 8849,
      "ÃĥÃ¼": 8850,
      "ĠÄĳá»Ľi": 8851,
      "ĠGiÃły": 8852,
      "ondon": 8853,
      "hot": 8854,
      "Ġnhá»¥c": 8855,
      "æŀľ": 8856,
      "Â½Â½": 8857,
      "çĦ": 8858,
      "¾³": 8859,
      "Ġháº¡ch": 8860,
      "à²·": 8861,
      "ĠDel": 8862,
      "uu": 8863,
      "Ġtrá»ħ": 8864,
      "stem": 8865,
      "fil": 8866,
      "107": 8867,
      "Minh": 8868,
      "ÃĨÃĨ": 8869,
      "images": 8870,
      "ĠTáº§ng": 8871,
      "Ńng": 8872,
      "ÃĭÃ¦": 8873,
      "Ã£ÆĴÆĴÃ£": 8874,
      "ĠWord": 8875,
      "vv": 8876,
      "Ġkhoang": 8877,
      "tes": 8878,
      "DR": 8879,
      "ĠKiá»ĥu": 8880,
      "ĠxÃ³t": 8881,
      "ION": 8882,
      "tus": 8883,
      "Ġà": 8884,
      "ĠSaigon": 8885,
      "ThiÃªn": 8886,
      "Sp": 8887,
      "133": 8888,
      "ĠTQ": 8889,
      "º¥u": 8890,
      "Ġdá»ĵi": 8891,
      "TVT": 8892,
      "áº¾N": 8893,
      "ĠÐ¿": 8894,
      "140": 8895,
      "ĠVá»«a": 8896,
      "Ġ125": 8897,
      "eco": 8898,
      "ward": 8899,
      "ĠVua": 8900,
      "arl": 8901,
      "Ġrong": 8902,
      "PhÃ³": 8903,
      "cha": 8904,
      "ThÆ°Æ¡ng": 8905,
      "Ġsta": 8906,
      "UN": 8907,
      "BTC": 8908,
      "ĠkhÆ¡i": 8909,
      "ĠTÃŃch": 8910,
      "win": 8911,
      "ĠMc": 8912,
      "air": 8913,
      "åįļ": 8914,
      "Â¶ÃĹ": 8915,
      "gá»±": 8916,
      "166": 8917,
      "zh": 8918,
      "ngá»±": 8919,
      "urr": 8920,
      "500000": 8921,
      "Ã¶Ã´": 8922,
      "Ġid": 8923,
      "ĠNhanh": 8924,
      "Î¹": 8925,
      "inho": 8926,
      "tour": 8927,
      "ĠJu": 8928,
      "Ġ84": 8929,
      "way": 8930,
      "ĠKing": 8931,
      "ĠDonald": 8932,
      "Ġ0703": 8933,
      "çŁ": 8934,
      "ç®": 8935,
      "ĠIm": 8936,
      "TA": 8937,
      "ati": 8938,
      "ĠGiÃ¡ng": 8939,
      "hÃºng": 8940,
      "ĠnghiÃª": 8941,
      "ford": 8942,
      "Ã²Ã": 8943,
      "Ġel": 8944,
      "Ã¯Ãµ": 8945,
      "å½±": 8946,
      "138": 8947,
      "PP": 8948,
      "Giao": 8949,
      "Ġquáº§y": 8950,
      "ĠCore": 8951,
      "Ġdáº¹p": 8952,
      "ĠÃµ": 8953,
      "126": 8954,
      "hm": 8955,
      "DN": 8956,
      "ĠRao": 8957,
      "ĠÄĳÄĥ": 8958,
      "Ġngá»±": 8959,
      "ĠVá»£": 8960,
      "ĠnÃ¨": 8961,
      "ÃħÃº": 8962,
      "ĠUyÃªn": 8963,
      "ĠKon": 8964,
      "Gá»": 8965,
      "Ã¢Ã®": 8966,
      "uá»Ļm": 8967,
      "Ġ</": 8968,
      "tream": 8969,
      "ĠNhá»Ľ": 8970,
      "ĠDá»°": 8971,
      "OM": 8972,
      "its": 8973,
      "ĠUkra": 8974,
      "Ġ2004": 8975,
      "ĠTha": 8976,
      "Ġdáº·m": 8977,
      ",âĢĿ": 8978,
      "ĠTÃºi": 8979,
      "Me": 8980,
      "éķ": 8981,
      "ĠÏ": 8982,
      "illa": 8983,
      "Gá»Ńi": 8984,
      "game": 8985,
      "vip": 8986,
      "ĠSINH": 8987,
      "Ġlay": 8988,
      "ÄĲáº¥t": 8989,
      "cy": 8990,
      "mal": 8991,
      "gy": 8992,
      "Ġlá»ĳ": 8993,
      "zon": 8994,
      "ĠTech": 8995,
      "Þ¤": 8996,
      "ĠSal": 8997,
      "ĠCanh": 8998,
      "ÄĲá»Ļi": 8999,
      "ĠÃ§Ã": 9000,
      "ĠNgÃ´i": 9001,
      "868": 9002,
      "ÃĩÃĴ": 9003,
      "Iá»ĢU": 9004,
      "uawei": 9005,
      "ĠChÃ¹a": 9006,
      "outh": 9007,
      "error": 9008,
      "ĠÄĳáº·n": 9009,
      "Soi": 9010,
      "ÂµÃĦÃĸ": 9011,
      "ĠBrazil": 9012,
      "dn": 9013,
      "ĠlÅ©y": 9014,
      "139": 9015,
      "Ġbet": 9016,
      "ĠSV": 9017,
      "document": 9018,
      "889": 9019,
      "à²¹": 9020,
      "ĠBin": 9021,
      "ĠVÄĤN": 9022,
      "109": 9023,
      "Ġchá»įc": 9024,
      "Ġhyundai": 9025,
      "Ġá»§i": 9026,
      "Ġseo": 9027,
      "ÄĲá»©c": 9028,
      "Láº§n": 9029,
      "táº£n": 9030,
      "LÃª": 9031,
      "ĠbÃłng": 9032,
      "ĠNhu": 9033,
      "national": 9034,
      "ĠGiáº£": 9035,
      "há»ĳt": 9036,
      "Ġ97": 9037,
      "xt": 9038,
      "Î¼": 9039,
      "ĠTÆ°á»Ľng": 9040,
      "chá»ī": 9041,
      "ĠBitcoin": 9042,
      "ĠTC": 9043,
      "ĠÄĳá»¥c": 9044,
      "Ġmin": 9045,
      "æģ": 9046,
      "Kim": 9047,
      "Â¸Â»": 9048,
      "ah": 9049,
      "wo": 9050,
      "ĠâĢŀ": 9051,
      "Iáº¾N": 9052,
      "ĠtrÃ¡n": 9053,
      "ĠÄĲáº¦": 9054,
      "ĠLÃĿ": 9055,
      "bc": 9056,
      "blog": 9057,
      "ĳÃ¹i": 9058,
      "ÄĳÃ¹i": 9059,
      "117": 9060,
      "ĠdÃª": 9061,
      "ï¾¿": 9062,
      "Ġauto": 9063,
      "Ġdáº£i": 9064,
      "ĠrÃ¢u": 9065,
      "ĢN": 9066,
      "Ġá»ĳm": 9067,
      "ngáº§n": 9068,
      "iness": 9069,
      "shi": 9070,
      "Ġbáº¥y": 9071,
      "bm": 9072,
      "Ġhotline": 9073,
      "ĠÃŁ": 9074,
      "ware": 9075,
      "Thuá»ĳc": 9076,
      "Ġcá»į": 9077,
      "Ġngáº§n": 9078,
      "Ø±": 9079,
      "ĠxÃłi": 9080,
      "Â¶Â·": 9081,
      "ÙĢ": 9082,
      "ĠÄĳáº¡c": 9083,
      "SH": 9084,
      "ĠBáº¯t": 9085,
      "Ġgá»Łi": 9086,
      "ÃķÃ¢ÃĴ": 9087,
      "ĠBiá»ĥu": 9088,
      "lÃł": 9089,
      "Ġ87": 9090,
      "Ġtáº£n": 9091,
      "Ã¤Ãł": 9092,
      "////": 9093,
      "TÄĥng": 9094,
      "ĠgiÃłn": 9095,
      "à²Ĺà²³": 9096,
      "ĠNÃ¢ng": 9097,
      "Xuáº¥t": 9098,
      "Â±Â´": 9099,
      "Ġmob": 9100,
      "Ġdáº·n": 9101,
      "ĠCAO": 9102,
      "{\"": 9103,
      "Song": 9104,
      "msc": 9105,
      "ĠMáºŃu": 9106,
      "ÃĶI": 9107,
      "ÃĬÃĴ": 9108,
      "ĠQL": 9109,
      "Ġcháº·ng": 9110,
      "ĠÄĳÃ¹i": 9111,
      "Ġalbum": 9112,
      "åĬĽ": 9113,
      "ĠNGÃĢY": 9114,
      "âĢİ": 9115,
      "ĠBer": 9116,
      "ĠxÆ°ng": 9117,
      "Ġtype": 9118,
      "Ngá»": 9119,
      "Ġrá»ħ": 9120,
      "ĠkhÃ¡nh": 9121,
      "Â¼Â²": 9122,
      "Ġ0166": 9123,
      "Ġper": 9124,
      "Ġ//}": 9125,
      "Ġkiá»ģm": 9126,
      "Ġí": 9127,
      "ication": 9128,
      "à½ĺ": 9129,
      "qui": 9130,
      "Ġ74": 9131,
      "ćć": 9132,
      "ĠbuÃ½t": 9133,
      "led": 9134,
      "ĈĈ": 9135,
      "Ġback": 9136,
      "=>": 9137,
      "ÃĹÂ´": 9138,
      "ÃĵÃ©": 9139,
      "UT": 9140,
      "550": 9141,
      "bin": 9142,
      "list": 9143,
      "Fi": 9144,
      "ÃĵÃĩ": 9145,
      "ĠLuÃ¢n": 9146,
      "Ġkhiáº¿t": 9147,
      "Ð¹": 9148,
      "MÃ¹a": 9149,
      "ÃıÃ®ÃĦ": 9150,
      "Ġxáº¯n": 9151,
      "å¥³": 9152,
      "fi": 9153,
      "æŃ£": 9154,
      "ĠVy": 9155,
      "ĠBÃ¡i": 9156,
      "áº¢NG": 9157,
      "Ġ115": 9158,
      "cÃ¡ch": 9159,
      "Ð³": 9160,
      "nhe": 9161,
      "ĠSá»¯a": 9162,
      "ĠLO": 9163,
      "ĠArchi": 9164,
      "ĠnÆ°": 9165,
      "129": 9166,
      "ĠghÃª": 9167,
      "kyo": 9168,
      "ĠdÃ©p": 9169,
      "hoáº·c": 9170,
      "ĠthiÃªng": 9171,
      "åĲį": 9172,
      "Ġnan": 9173,
      "Ġbáº¡t": 9174,
      "ĠTK": 9175,
      "Ġkáº¹o": 9176,
      "ĠCen": 9177,
      "Ġphai": 9178,
      "zo": 9179,
      "vie": 9180,
      "Ġru": 9181,
      "à½ĵ": 9182,
      "ÃĹÂ·": 9183,
      "Â«Â¿": 9184,
      "ave": 9185,
      "tina": 9186,
      "Ġná»į": 9187,
      "ĠlÆ°Æ¡": 9188,
      "è¿ĩ": 9189,
      "Cung": 9190,
      "ÃĸÃĲÃĲÃĦ": 9191,
      "Chu": 9192,
      "à½Ħ": 9193,
      "ĠkiÃªm": 9194,
      "Ġåĩ": 9195,
      "Ġgáº¡t": 9196,
      "emove": 9197,
      "---": 9198,
      "ĠKhá»ĳi": 9199,
      "king": 9200,
      "ĠÃ§Ãł": 9201,
      "ĠÄĳá»įng": 9202,
      "Ġchá»ĳn": 9203,
      "ĺT": 9204,
      "wood": 9205,
      "gb": 9206,
      "Ġchuyen": 9207,
      "nháº¥p": 9208,
      "ĠBig": 9209,
      "Hy": 9210,
      "ady": 9211,
      "çĪ±": 9212,
      "Ġ`": 9213,
      "CÃ¢y": 9214,
      "Ò»": 9215,
      "Iá»ĢN": 9216,
      "ĠrÃ¡o": 9217,
      "Hi": 9218,
      "ĠPremier": 9219,
      "Book": 9220,
      ".....": 9221,
      "ÃķÃ¾ÃĸÃİ": 9222,
      "ĠbÃ¹n": 9223,
      "ĠSol": 9224,
      "èĢĮ": 9225,
      "ThÃªm": 9226,
      "ĠPen": 9227,
      "ĠRonaldo": 9228,
      "áº¤N": 9229,
      "ler": 9230,
      "ÃĤÃ§": 9231,
      "ĠThuáº¿": 9232,
      "ÃıÃ³": 9233,
      "ÃĪÂº": 9234,
      "Â¸Â£": 9235,
      "kia": 9236,
      "Quyáº¿t": 9237,
      "éģĵ": 9238,
      "ĠhÃŃt": 9239,
      "INE": 9240,
      "Æ¯u": 9241,
      "ĠMáºŃt": 9242,
      "ĠDao": 9243,
      "Tim": 9244,
      "Ġ73": 9245,
      "ĠGIA": 9246,
      "ĠsÆ°á»Ŀn": 9247,
      "uccess": 9248,
      "ÃĵÃ": 9249,
      "Ġ83": 9250,
      "ÃĪÃĻ": 9251,
      "ĠcÃ³c": 9252,
      "quanghang": 9253,
      "ĠQUá»ĲC": 9254,
      "ÃĵÃį": 9255,
      "mat": 9256,
      "Tá»ķ": 9257,
      "ÃĲÃĮ": 9258,
      "èĲ": 9259,
      "ĠAug": 9260,
      "ĠWash": 9261,
      "Ġ160": 9262,
      "ÃĦÃ": 9263,
      "house": 9264,
      "ĳÃ¨": 9265,
      "bit": 9266,
      "ÄĳÃ¨": 9267,
      "169": 9268,
      "ĠNHá»": 9269,
      "Ġnháº¥p": 9270,
      "Â¸Â¸": 9271,
      "SC": 9272,
      "vuá»ĳt": 9273,
      "TÃ¢n": 9274,
      "ĠÄĳáº¯m": 9275,
      "Ã¥ÃŃÃ¨": 9276,
      "LÃ¿": 9277,
      "uzu": 9278,
      "ç¤": 9279,
      "ĠâĢļ": 9280,
      "2003": 9281,
      "ÃĲÃħÃı": 9282,
      "ault": 9283,
      "ÂµÃĦÃį": 9284,
      "ĠÄĲá»ĺNG": 9285,
      "nháº·t": 9286,
      "Ġshare": 9287,
      "eth": 9288,
      "ĠÄĳá»ĳng": 9289,
      "Â¡Â»": 9290,
      "Luc": 9291,
      "ĠSáº½": 9292,
      "ÃĲÃŀ": 9293,
      "ĠMá»Ŀi": 9294,
      "fer": 9295,
      "ÃķÃ²": 9296,
      "Chung": 9297,
      "ĠDá»ħ": 9298,
      "Ġ240": 9299,
      "å»": 9300,
      "ĠFan": 9301,
      "Ġráº½": 9302,
      "Ġcomp": 9303,
      "Ġgá»«ng": 9304,
      "TD": 9305,
      "Ġthon": 9306,
      "Ġmg": 9307,
      "NháºŃt": 9308,
      "Ġnao": 9309,
      "ĠTHÃĢNH": 9310,
      "mon": 9311,
      "ĠMercedes": 9312,
      "¾³éĹ¨": 9313,
      "Â£Â¬Â·": 9314,
      "Ġgom": 9315,
      "Index": 9316,
      "Ġvuá»ĳt": 9317,
      "irc": 9318,
      "Tinh": 9319,
      "kinh": 9320,
      "ete": 9321,
      "ĠMag": 9322,
      "ĠNÄĤM": 9323,
      "ĠXa": 9324,
      "ĠDá»¤NG": 9325,
      "Ġcard": 9326,
      "ĠÃģN": 9327,
      "Ġghen": 9328,
      "ðŁĺ": 9329,
      "Â¿Â¨": 9330,
      "Mod": 9331,
      "Email": 9332,
      "264": 9333,
      "eal": 9334,
      "Háº¯n": 9335,
      "ĠÑ": 9336,
      "247": 9337,
      "Ġlá»Ļt": 9338,
      "ĠTÆ°á»Łng": 9339,
      "Ġ//\"": 9340,
      "ìĹ": 9341,
      "ĠAuto": 9342,
      "ÄĲÃ¨n": 9343,
      "ÃĴÃ²ÃİÂª": 9344,
      "ĠStr": 9345,
      "ÃīÃİÂª": 9346,
      "âĢļÂ°": 9347,
      "Ãµn": 9348,
      "226": 9349,
      "ĠbÃ£": 9350,
      "ĠVIP": 9351,
      "ĠÄĳiÃªu": 9352,
      "ÃģÃµ": 9353,
      "È¤": 9354,
      "ÃĲÃĭ": 9355,
      "pi": 9356,
      "Ġsal": 9357,
      "ĠvÃłnh": 9358,
      "Click": 9359,
      "åĪ©": 9360,
      "113": 9361,
      "èµĽ": 9362,
      "ĠLondon": 9363,
      "Â¦Â¸": 9364,
      "ç¬¬": 9365,
      "Ġnháº·t": 9366,
      "çł": 9367,
      "off": 9368,
      "chool": 9369,
      "ÃħÃĦ": 9370,
      "æĹł": 9371,
      "Ġxoáº¯n": 9372,
      "ĠBÃ£i": 9373,
      "You": 9374,
      "ĠWar": 9375,
      "For": 9376,
      "omb": 9377,
      "há»§n": 9378,
      "ChÃºc": 9379,
      "ĠÄĳÆ°": 9380,
      "170": 9381,
      "ĠTHÃĶNG": 9382,
      "Ġbá»įt": 9383,
      "ïĤ": 9384,
      "ÃģNH": 9385,
      "Â«Â°": 9386,
      "ĠÄĳÃ¨": 9387,
      "Ġgá»ī": 9388,
      "Ġ82": 9389,
      "ĠNHáº¤T": 9390,
      "ÃĲÃ¨ÃĴÂª": 9391,
      "ider": 9392,
      "gt": 9393,
      "dat": 9394,
      "ĠXÃ´": 9395,
      "OD": 9396,
      "ĠsÃ²ng": 9397,
      "ĠÐ²": 9398,
      "ĠGIá»": 9399,
      "há»§ng": 9400,
      "ĠSÃ¡t": 9401,
      "CK": 9402,
      "Ã¥Ã©": 9403,
      "ÃĵÃ²": 9404,
      "Ð·": 9405,
      "599": 9406,
      "Ġcanxi": 9407,
      "Ġcáº¥y": 9408,
      "ĠquÃ£ng": 9409,
      "Ġ92": 9410,
      "]ï¼Į": 9411,
      "ĠJack": 9412,
      "Ì¶": 9413,
      "ĠGa": 9414,
      "ĠcÆ°ng": 9415,
      "Ġget": 9416,
      "ela": 9417,
      "à²ļ": 9418,
      "ĠgiÃ²n": 9419,
      "Ġpo": 9420,
      "uld": 9421,
      "ĠWi": 9422,
      "101": 9423,
      "ÃĸÃĲÃĳÃ«": 9424,
      "ÃĥÃ¢": 9425,
      "Ġkhuáº¥t": 9426,
      "ç¨": 9427,
      "ĠTáº¡": 9428,
      "Ġsá»¥p": 9429,
      "ĠNe": 9430,
      "ĠVÄĲ": 9431,
      "ĳao": 9432,
      "Äĳao": 9433,
      "ä¿¡": 9434,
      "ĠSáº¯c": 9435,
      "Ġæĺ": 9436,
      "Truyá»ĩn": 9437,
      "ä¸ĩ": 9438,
      "Ġlá»¥a": 9439,
      "ĠæĪ": 9440,
      "true": 9441,
      "ËĻ": 9442,
      "Ġrá»ĥ": 9443,
      "ĠTiá»ĩn": 9444,
      "Ã£m": 9445,
      "à½º": 9446,
      "ÃĩÃ¬": 9447,
      "Un": 9448,
      "ĠCM": 9449,
      "Ġgá»Ļi": 9450,
      "Ã¦Ã°": 9451,
      "áº¨M": 9452,
      "ÃİÃĤ": 9453,
      "ÅĦ": 9454,
      "ĠDáº«n": 9455,
      "ĠBB": 9456,
      "ĠCá»±c": 9457,
      "Æ¯á»ľI": 9458,
      "ĠTá»ĳ": 9459,
      "ĠPR": 9460,
      "nhá»¯ng": 9461,
      "ĠCty": 9462,
      "ule": 9463,
      "gáº¡ch": 9464,
      "ĠxÃ´": 9465,
      "ĠFl": 9466,
      "ĠQuáº»": 9467,
      "Ġgoogle": 9468,
      "Ġ->": 9469,
      "ĠphÃ¬": 9470,
      "nuá»ĳt": 9471,
      "¨NG": 9472,
      "gáº«u": 9473,
      "ĠMáº¡ch": 9474,
      "Ġbá»«ng": 9475,
      "ngáº«u": 9476,
      "ï¾¸": 9477,
      "Îµ": 9478,
      "Ġkhiáº¿p": 9479,
      "Ġque": 9480,
      "ĠMong": 9481,
      "Ġvin": 9482,
      "137": 9483,
      "âĢĭâĢĭ": 9484,
      "Õ«": 9485,
      "elona": 9486,
      "dc": 9487,
      "å¸Ĥ": 9488,
      "ĠIV": 9489,
      "288": 9490,
      "à²¶": 9491,
      "ÃħÃī": 9492,
      "ÃıÃĸÃĶÃļ": 9493,
      "Ġ81": 9494,
      "rael": 9495,
      "Ġåı": 9496,
      "Ġtime": 9497,
      "ella": 9498,
      "CÄĲ": 9499,
      "Vá»«a": 9500,
      "ĠÄĳao": 9501,
      "ĠSub": 9502,
      "áº©n": 9503,
      "Ġden": 9504,
      "DÃ¹ng": 9505,
      "Â²Â¹": 9506,
      "ĠThÃ¬": 9507,
      "EE": 9508,
      "áºª": 9509,
      "vatar": 9510,
      "âķ": 9511,
      "ĠchiÃª": 9512,
      "ĠAp": 9513,
      "ïĢ": 9514,
      "uto": 9515,
      "ĠdÃ¢": 9516,
      "ĠsÃ¡p": 9517,
      "ĠXÃ¡c": 9518,
      "345": 9519,
      "Ġone": 9520,
      "work": 9521,
      "glish": 9522,
      "Tá»±": 9523,
      "Ġbus": 9524,
      "éĿ¢": 9525,
      "ïº": 9526,
      "CáºŃu": 9527,
      "ĠDong": 9528,
      "sau": 9529,
      "Ġwe": 9530,
      "Cáº£": 9531,
      "facebook": 9532,
      "nhÃ¡y": 9533,
      "ĠGá»Ĺ": 9534,
      "Ġlaser": 9535,
      "á»§y": 9536,
      "èĢħ": 9537,
      "emon": 9538,
      "ÂºÃ²": 9539,
      "ĠFC": 9540,
      "ÃķÃ¢ÃĲ": 9541,
      "Æ¤": 9542,
      "Ġtest": 9543,
      "ÃĭÃĺ": 9544,
      "har": 9545,
      "quy": 9546,
      "ĠNHÃĤN": 9547,
      "wan": 9548,
      "ĠNhá»ĭ": 9549,
      "á¹": 9550,
      "ĠmÃ¢": 9551,
      "ĠHáº¡o": 9552,
      "Ġhan": 9553,
      "Ġngáº«u": 9554,
      "ĠObama": 9555,
      "ĠFran": 9556,
      "Ġlá»Ł": 9557,
      "hoi": 9558,
      "ĠNGHá»": 9559,
      "Ġwill": 9560,
      "fc": 9561,
      "ange": 9562,
      "Ná»": 9563,
      "ĠKhÃ¡c": 9564,
      "ï¾¯": 9565,
      "ĠNov": 9566,
      "ÄĲÆ¡n": 9567,
      "ĠTá»ĳng": 9568,
      "âĢļÂ«": 9569,
      "âĨĲ": 9570,
      "under": 9571,
      "rec": 9572,
      "UP": 9573,
      "ÃĺÂª": 9574,
      "ĠXÃ": 9575,
      "Ġisuzu": 9576,
      "Ġes": 9577,
      "Ġ0969": 9578,
      "Ġkiá»ģu": 9579,
      "gá»ĳc": 9580,
      "Ġ0866": 9581,
      "áº¦U": 9582,
      "Ġkáº¹t": 9583,
      "ita": 9584,
      "SP": 9585,
      "Lá»ħ": 9586,
      "Ġdá»Ĺ": 9587,
      "Khá»": 9588,
      "OH": 9589,
      "asonic": 9590,
      "Ġlá»ĵn": 9591,
      "Ã¥Ã¬": 9592,
      "Ġ71": 9593,
      "ÃĵA": 9594,
      "ĠTHI": 9595,
      "ĠhÃ´ng": 9596,
      "gs": 9597,
      "Ġsá»ıi": 9598,
      "çīĮ": 9599,
      "ĠHá»ĺI": 9600,
      "Ã«Ã¿": 9601,
      "QuÃ": 9602,
      "ĠPage": 9603,
      "Ġji": 9604,
      "ĠTwitter": 9605,
      "='": 9606,
      "cáº£": 9607,
      "ector": 9608,
      "ĠhÃ©": 9609,
      "ĠnhÃ¡y": 9610,
      "Ġmuá»": 9611,
      "ÃĭÃ£": 9612,
      "ĠVá»¤": 9613,
      "ĠMic": 9614,
      "è¢": 9615,
      "ĠSá»¹": 9616,
      "ÂŃ|": 9617,
      "ids": 9618,
      "001": 9619,
      "OA": 9620,
      "ĠÃģp": 9621,
      "ĠReply": 9622,
      "nes": 9623,
      "186": 9624,
      "ric": 9625,
      "ÃĵÃĲÃıÃŀ": 9626,
      "ĠTá»ª": 9627,
      "ĠVic": 9628,
      "Ã¤n": 9629,
      "Ã£ÆĴÆĴÃ£ÆĴËĨ": 9630,
      "ìĿ´": 9631,
      "SI": 9632,
      "ĠMA": 9633,
      "NÆ¡i": 9634,
      "æĪı": 9635,
      "Ġ105": 9636,
      "ĠKhÃ¡m": 9637,
      "ç½ĳç«Ļ": 9638,
      "ĠLáº¡ng": 9639,
      "å·¥": 9640,
      "tuc": 9641,
      "ÃĥÃĭ": 9642,
      "159": 9643,
      "VC": 9644,
      "reak": 9645,
      "Ġvá»īa": 9646,
      "Þķ": 9647,
      "ĠtÃ¡t": 9648,
      "rr": 9649,
      "Ġthong": 9650,
      "ËĿ": 9651,
      "atin": 9652,
      "¥¿": 9653,
      "ĠchÃ¬": 9654,
      "ĠLáº¯p": 9655,
      "ÃģI": 9656,
      "ÃİÃ¤": 9657,
      "Ġtp": 9658,
      "Ġ0989": 9659,
      "sao": 9660,
      ",..": 9661,
      "280": 9662,
      "MÃłn": 9663,
      "Ġcheck": 9664,
      "ĠhÆ°Æ¡": 9665,
      "Ġzh": 9666,
      "Ġrá»ĩt": 9667,
      "ĠXiaomi": 9668,
      "149": 9669,
      "155": 9670,
      "ĠSá»ķ": 9671,
      "Ġkhao": 9672,
      "ving": 9673,
      "Ġcháº±m": 9674,
      "ĠLiá»ħu": 9675,
      "Ġgolf": 9676,
      "bs": 9677,
      "Ġsup": 9678,
      "ÃĤU": 9679,
      "Ġthoi": 9680,
      "Ã§ÃĢ": 9681,
      "Ġ0129": 9682,
      "Ġquáº»": 9683,
      "vao": 9684,
      "ĠhoÃ£n": 9685,
      "ĠWe": 9686,
      "nap": 9687,
      "HÃłnh": 9688,
      "ĠBinh": 9689,
      "ĠMu": 9690,
      "ĠgÃ²": 9691,
      "åĬł": 9692,
      "çī¹": 9693,
      "Â´Â¨": 9694,
      "Ġfe": 9695,
      "Ġ450": 9696,
      "Ġnhá»Ŀn": 9697,
      "aul": 9698,
      "ÃĤÃ²": 9699,
      "nen": 9700,
      "à³Ĩ.": 9701,
      "aco": 9702,
      "ĠWashington": 9703,
      "nis": 9704,
      "Ġtá»ĵi": 9705,
      "ĠThuÃª": 9706,
      "tron": 9707,
      "ĠxÆ°á»Ľc": 9708,
      "Gáº§n": 9709,
      "Ġâĸ": 9710,
      "650": 9711,
      "ĠCR": 9712,
      "ĠcÃło": 9713,
      "998": 9714,
      "Ġcollagen": 9715,
      "ĠÃ¾": 9716,
      "ollow": 9717,
      "ĠOf": 9718,
      "Ġpos": 9719,
      "Ġep": 9720,
      "Ġsays": 9721,
      "háº£n": 9722,
      "ĠRiverside": 9723,
      "ĠHol": 9724,
      "ÃĹÂ¡": 9725,
      "vung": 9726,
      "Ġtren": 9727,
      "Ã²Ãł": 9728,
      "ĠmÃ£nh": 9729,
      "ĠCá»ķng": 9730,
      "ĠTRÆ¯á»ľNG": 9731,
      "ÃĪÃļ": 9732,
      "ĠHá»Ļp": 9733,
      "amaha": 9734,
      "Ġdá»Ŀi": 9735,
      "length": 9736,
      "éĴ": 9737,
      "158": 9738,
      "ĠSoi": 9739,
      "pop": 9740,
      "æį": 9741,
      "Ġnhe": 9742,
      "Ġchá»Ľp": 9743,
      "huá»Ļm": 9744,
      "Chiáº¿c": 9745,
[...]
